▁ 390219701
的 212590722
了 80396436
是 52199055
我 50166550
一 42624834
你 41426785
在 40978190
零 40037263
和 39842915
不 39429968
有 39379456
点 33839468
人 31692388
二 28491155
好 26278716
就 26230397
说 25869459
上 22132330
大 22109746
到 20781664
三 20691092
啊 20634047
要 19651197
去 19494970
对 19327734
中 19226966
会 19071970
都 17860526
来 17365242
他 17146411
五 17011959
也 16972713
看 16965877
一个 16255558
用 15813689
没 15717813
四 15707143
为 15674683
吧 15544014
这个 15421327
可以 15195690
子 15188143
我们 15083907
吗 15070124
这 14767180
自己 14738248
就是 14654162
小 14391511
过 14382509
六 14338676
与 14328317
没有 14234772
▁n 13761627
八 13759389
九 13623713
能 13540974
▁r 13503603
还 13409444
后 13116596
想 13038726
发 12962913
多 12913669
做 12882534
着 12789349
年 12660493
很 12569347
那 12138343
个 12109285
▁我 12070289
下 12069460
地 11999949
时 11926663
什么 11831258
得 11774001
爱 11676461
现在 11284395
还是 11266517
心 11073361
出 11069997
月 11021845
七 10780937
等 10779832
里 10741446
被 10738827
买 10676420
她 10657299
打 10267969
学 10197607
给 10125835
呢 9994290
再 9986964
不是 9931574
天 9916309
家 9906486
无 9870944
开 9850669
从 9645754
怎么 9618134
最 9457923
都是 9373081
分 9334773
把 9277993
而 9150210
又 8834612
他们 8800576
车 8787957
高 8783077
文 8715358
钱 8632726
的人 8077614
但 8066339
太 8036760
性 7999669
日 7993335
因为 7909993
喜欢 7900614
长 7873922
号 7767407
老 7740541
可 7717954
事 7717295
新 7710197
于 7643677
之 7606064
头 7599505
行 7536141
写 7291160
本 7285562
自 7273111
时间 7248614
以 7222819
工作 7203326
听 7073372
水 7054748
问题 7042771
公司 7041270
花 6989071
比 6956614
楼 6941166
生 6878008
的时候 6833683
中国 6824872
问 6725843
考 6713681
将 6671118
卡 6637446
前 6501604
但是 6475081
找 6475045
主 6467153
网 6466729
▁二 6455205
需要 6396072
不要 6358303
手 6260374
一下 6239703
让 6230900
机 6213687
名 6181312
书 6164508
不能 6160537
金 6126203
还有 6098863
单 6067259
自己的 6056156
所 6044107
玩 6006688
手机 5986586
▁一 5959563
应该 5924395
更 5900079
带 5880412
吃 5877406
费 5857273
请 5841172
也是 5833024
两 5824073
我的 5807563
你的 5800405
成 5789654
法 5786950
大学 5773160
别 5768301
才 5750073
你们 5726612
语 5669323
美 5648300
的话 5634396
已经 5603289
▁你 5600518
这样 5599240
如果 5593116
外 5584623
当 5535500
跟 5490045
真 5442304
那个 5429083
万 5399996
情 5394870
张 5383970
国 5380303
气 5378217
力 5361254
路 5340165
谁 5311966
学校 5289503
话 5238788
或 5198299
▁在 5169075
这种 5129698
觉得 5109022
所以 5062844
女 5056565
生活 5035058
歌 5028337
全 5020300
口 5015205
走 4994716
回 4966072
那么 4957419
先 4955657
求 4952178
孩子 4941615
者 4939764
其实 4908521
风 4906061
向 4894923
动 4864811
电影 4861808
然后 4861725
一点 4850929
通 4839271
内 4788945
白 4777108
比较 4741376
元 4732328
这些 4720700
线 4712032
快 4707000
店 4699173
转 4668981
加 4659737
学习 4657887
该 4637026
卖 4616863
证 4607765
起 4605161
门 4585959
知道 4560987
希望 4551519
并 4548791
百 4548141
哦 4542347
报 4527885
面 4516756
只是 4505416
很多 4449898
几 4449845
却 4445437
区 4433722
图 4428628
化 4420013
这么 4419153
感 4408876
不会 4406983
只 4398432
总 4383540
华 4378371
一样 4375352
叫 4363826
啦 4347836
光 4334396
同 4333133
货 4313596
开始 4312210
感觉 4308417
的是 4302189
定 4287826
一些 4286078
十 4285395
或者 4279477
电 4277152
其 4276298
重 4266924
如何 4247880
王 4238622
不知道 4233506
专业 4224398
可能 4216672
哪 4211853
强 4193482
干 4188371
儿 4183713
换 4163847
管理 4159211
别人 4135040
马 4132329
像 4126370
您 4110544
嗯 4097612
价 4095563
老师 4087795
山 4079656
如 4069573
难 4067863
包 4059877
及 4056064
数 4055253
企业 4052689
么 4041699
工 4040097
这是 4032122
回复 4029576
作 4012534
正 4005421
红 3996591
们 3986009
海 3973942
服务 3948180
市 3947989
它 3938381
入 3934471
▁at 3932943
交 3931043
谢谢 3919510
死 3899261
出来 3887529
不过 3882886
大家 3857685
词 3840975
理 3840074
特 3837839
处 3824791
神 3818029
教 3815553
安 3814376
银行 3814268
以后 3809292
而且 3800056
意 3786979
进行 3786120
看到 3784711
部 3778006
为什么 3771983
一般 3767337
相 3762379
装 3740457
道 3724849
进 3724707
二十 3715775
朋友 3708090
只有 3707032
科 3692167
市场 3689943
字 3687318
真的 3682299
我是 3672319
今天 3669415
方 3664602
见 3658784
国家 3645510
实 3629626
个人 3625867
读 3613140
亲 3612971
社会 3611245
信 3607624
剧 3603405
场 3602751
原 3591047
选 3588210
教育 3584500
学生 3582957
看看 3564586
北京 3555226
拉 3554967
放 3539507
通过 3537837
送 3536640
站 3535052
多少 3530381
这样的 3529098
讲 3527737
美国 3527077
版 3517423
期 3515606
班 3502457
明 3489828
非常 3486432
收 3482461
发现 3480974
呀 3480015
局 3453336
级 3407255
笑 3399682
合 3385880
周 3383205
算 3376170
办 3372937
▁三 3355796
课 3353133
拿 3349438
好的 3347687
片 3346711
乐 3323615
专 3289032
挺 3287079
盘 3275478
身 3272499
低 3269696
技术 3269226
值 3265094
流 3258343
师 3247577
不好 3237216
关系 3233276
男 3230105
千 3228048
表 3217023
应 3216080
城 3209353
给我 3208055
伤 3199814
眼 3189677
少 3186582
节 3173652
商 3171115
第一 3169718
发展 3166969
要求 3155553
公 3150459
活动 3145382
东西 3140549
票 3139177
给你 3137599
变 3137582
是不是 3130296
直接 3128278
早 3126765
世界 3123234
之后 3110790
选择 3109903
黑 3103768
▁这 3103118
最后 3101906
电话 3101495
台 3100886
保 3098921
已 3098801
体 3095117
查 3090515
由 3082247
热 3082083
音乐 3078008
完 3047261
连 3043845
一起 3041906
度 3036561
是什么 3032883
量 3032518
调 3032442
岁 3029160
游戏 3017219
品 3000968
信息 2996955
▁我们 2996329
西 2995556
啥 2993642
受 2990734
一直 2987449
考试 2972928
活 2970622
南 2963569
房 2962726
东 2953617
不错 2947063
那些 2941125
双 2940061
越 2935264
经济 2935257
空 2918490
火 2915887
题 2913847
我想 2909470
起来 2893184
类 2891201
学院 2881660
刚 2879494
一年 2862060
德 2853742
嘛 2852491
业 2849633
发表 2847398
两个 2840147
款 2839834
一次 2839721
系统 2823520
人的 2821183
有点 2820565
位 2820381
结 2818975
博 2809317
接 2800141
特别 2791837
为了 2785151
急 2782338
林 2782081
宝 2777853
音 2772374
声 2767507
当然 2765735
管 2763627
清 2761313
深 2741873
拍 2737335
产品 2732274
照 2731566
快乐 2730603
平 2709566
利 2708900
嗡 2704261
龙 2699045
唱 2698648
李 2697512
网络 2690908
努力 2690588
也不 2686045
其他 2676385
晚 2674619
关 2667557
了解 2661271
谈 2654226
必须 2653676
爱情 2652737
英语 2651401
代 2648144
改 2644187
人生 2643660
员 2641993
只能 2641523
才能 2641244
来说 2629525
条 2627826
里面 2610281
言 2609597
称 2609253
设计 2605328
能够 2599893
试 2598505
价格 2595504
成为 2584780
联系 2580990
取 2573552
流量 2571162
妈 2570560
权 2566397
差 2564608
认为 2563900
以前 2563540
我觉得 2563081
超 2561801
经 2560861
座 2559069
之前 2557142
他的 2555153
建议 2554965
对于 2549503
贵 2549098
省 2548693
非 2545292
远 2543201
半 2542572
使 2533955
质 2526399
一个人 2519958
军 2518446
哪个 2515203
间 2513840
不了 2511750
知 2509946
百分之 2509755
户 2507875
记 2500830
视 2497430
当时 2493125
次 2490341
几个 2479830
曲 2476635
制 2476604
毕业 2476453
都有 2474208
假 2474082
星 2468306
赞 2466447
物 2460430
团 2458282
首 2457936
病 2457322
作为 2452301
反 2446475
关于 2443998
我就 2442930
梦 2424833
种 2422547
我也 2419779
额 2417255
▁a 2416637
离 2406514
世 2406082
能力 2404902
边 2404170
只要 2403485
哈 2399119
使用 2394792
▁如果 2394540
可是 2392061
解 2381524
联 2378830
住 2373845
投资 2369250
器 2368945
黄 2362156
国际 2359532
上海 2357448
移动 2355651
情况 2352309
文化 2345653
帮 2345289
克 2343827
约 2338466
是一个 2336697
无法 2335777
请问 2335070
以及 2334119
哈哈 2328885
游 2326079
达 2325475
有什么 2317910
哥 2316689
校 2314538
有没有 2309341
准备 2307611
支持 2301438
贴 2300725
画 2300614
虽然 2298281
的问题 2293601
色 2292824
陈 2289533
不同 2287378
充 2287311
中的 2286043
斯 2284927
按 2283124
是否 2280957
搞 2278224
理解 2273860
到了 2272922
影响 2267955
税 2267798
父母 2266108
云 2262117
股 2258763
尔 2254221
最好 2248509
项目 2246088
电脑 2245524
养 2245054
一种 2239503
观 2230300
很好 2230142
肯定 2227024
现 2226624
研究 2224654
不用 2223830
牛 2215702
有些 2212577
怎样 2210747
一一 2207044
完全 2206093
工程 2204849
集 2199905
▁中国 2198995
战 2193964
近 2191819
飞 2190167
十二 2181429
提 2178012
指 2177584
常 2177502
往 2176206
幸福 2173932
精 2172061
毛 2157482
分析 2155647
不到 2155525
提供 2154923
何 2151386
极 2151316
饭 2148999
所有 2143893
妈妈 2141675
方面 2136314
异 2134812
让我 2134275
满 2131528
阳 2129570
好像 2125448
内容 2124166
件 2119767
▁但 2116553
型 2114596
主要 2109202
▁他 2109107
单位 2104121
掉 2101760
院 2101329
推荐 2097292
跑 2092117
方式 2091426
油 2090220
修 2088261
网上 2086493
有人 2079103
女人 2077622
上的 2074114
关注 2073403
中心 2070863
自然 2064628
落 2060572
建 2058035
初 2056958
表示 2055252
复 2052695
继续 2051060
传 2048770
睡 2047685
晚上 2046561
服 2044460
某 2043617
药 2042636
因 2038674
牌 2036069
基本 2035116
了我 2033963
血 2030757
组 2029291
就会 2023143
申请 2011777
阿 2008194
各 2007258
质量 2005142
结果 2000618
回来 1995213
▁c 1994676
排 1990043
木 1989719
则 1986935
后来 1986434
民 1986297
领 1984751
视频 1984381
相信 1982451
错 1979803
米 1977309
直 1972399
参加 1963687
奖 1961799
队 1959672
源 1959514
解决 1958267
存 1957689
样 1957017
句 1952345
顺 1951459
北 1951323
一天 1951161
江 1950076
本地 1949747
刘 1947172
顶 1946414
的东西 1942092
也有 1941499
哪里 1940421
狗 1935654
坐 1930560
决定 1929107
总是 1928497
目前 1921396
运 1919622
论 1916188
政府 1914944
每 1913847
杀 1912361
销 1911687
购 1911639
退 1909518
同学 1907241
男人 1900481
意思 1897265
演 1896835
优惠 1896786
明天 1894966
好好 1890787
环境 1882575
医院 1882060
州 1878867
业务 1876545
穿 1874503
比如 1874378
确实 1873303
古 1867089
失 1866836
客 1865002
工资 1862486
方法 1862374
▁b 1861580
生产 1861073
永远 1860542
地方 1857285
我们的 1852611
我在 1851963
套 1845258
成功 1841822
知识 1840954
微 1839449
弄 1836760
坏 1836684
便 1834230
qq 1827822
夜 1826525
▁但是 1825849
建设 1823625
格 1821866
处理 1813758
各种 1812958
补 1812862
预 1812621
县 1812311
率 1811618
改变 1811553
未 1810522
属于 1810392
今年 1808629
底 1804123
包括 1800541
任 1798612
感情 1797637
都不 1792937
评 1790714
客户 1786364
段 1784257
软件 1783988
都会 1782979
接受 1782174
冷 1781686
甚至 1781184
▁而 1781156
留 1781098
行业 1779941
苦 1779254
计划 1779074
章 1776362
条件 1776250
亚 1776175
职 1775329
网站 1772746
出现 1770922
倒 1769645
帮助 1767930
事情 1767307
人们 1766493
怕 1766443
得到 1765603
家里 1765358
五年 1765027
青 1764646
推 1764404
故事 1762548
这一 1762493
还要 1761399
一百 1758540
爱你 1757285
十五 1755029
人员 1754999
的事情 1754724
至 1754162
让人 1754113
悲 1754047
靠 1753027
▁g 1751133
办理 1744959
招 1744857
标准 1744410
第二 1742400
组织 1742098
球 1741919
产 1737499
石 1736181
那种 1732353
汽车 1731870
基 1730645
安全 1729882
此 1722083
标 1718217
以为 1717186
左右 1713871
是个 1713339
时候 1713214
付 1712017
销售 1707888
结婚 1706757
迷 1705967
压 1705458
尽 1705316
分钟 1704704
诗 1702647
些 1700869
怎么样 1700601
你可以 1698929
奇 1698812
思 1697178
余 1696597
▁所以 1695972
鱼 1695436
家庭 1694483
立 1694301
艺术 1692415
编 1691753
城市 1690633
真是 1690133
呵呵 1689524
春 1686053
皮 1684985
不想 1682469
脸 1680004
坚持 1679747
喝 1679401
也许 1678350
期待 1676239
小说 1673535
认识 1673288
菜 1672645
同时 1668454
婚 1663919
太多 1663256
现实 1662767
板 1662275
每天 1662251
短 1661298
村 1652621
最近 1652302
想要 1652133
智 1651915
艺 1647717
▁从 1647437
社 1645395
懂 1643371
榜 1643002
签 1641472
未来 1639286
群 1638183
节目 1633561
猫 1633496
洗 1630291
下载 1627080
恶 1623850
由于 1623058
任何 1622657
对方 1622282
开心 1621166
开通 1620648
存在 1616619
恋 1615851
如此 1612605
找到 1612574
礼 1610690
码 1608832
即 1606775
逼 1603081
借 1602586
骗 1601684
代表 1601203
系 1597565
精神 1596769
然 1596555
的地方 1593437
考虑 1589678
新闻 1588582
经常 1588245
友 1587160
领导 1585688
厅 1583757
纳 1577594
介绍 1577262
乱 1576247
全国 1573308
s 1572434
国内 1571346
一定 1570101
街 1566920
说明 1566187
笔 1564440
酒 1563793
你是 1563696
每个 1563049
这里 1562215
证明 1561758
罗 1558035
念 1553887
让你 1553732
随 1553675
就可以 1552648
配 1552283
影 1550742
感谢 1549221
品牌 1549053
私 1546243
过来 1543454
十八 1543311
历史 1542097
喜 1541391
托 1537885
并不 1533522
▁s 1533238
回家 1533029
义 1528589
三年 1524732
过去 1524667
三十 1523294
升 1522531
日本 1521417
的事 1519904
银 1517883
资料 1517181
人家 1516446
有个 1515149
我要 1513859
成绩 1513823
汉 1513798
式 1513580
具体 1512598
拥有 1510653
语言 1506600
因此 1506350
根据 1505690
雨 1505566
部分 1503848
儿子 1501698
科学 1500398
下来 1499818
还没 1499468
才是 1498831
培训 1498305
姐 1498243
法律 1497606
▁i 1497126
好了 1496479
资 1494820
交易 1494592
在一起 1492744
遇到 1492457
说的 1489933
你要 1486165
追 1485375
微博 1482755
心里 1482563
望 1482018
职业 1481411
平台 1480729
步 1480577
土 1480324
一定要 1480182
几天 1480146
拜 1476892
的小 1474860
估计 1474763
背 1474319
的生活 1472564
整 1471951
河 1471922
肉 1469009
合同 1468581
教学 1466285
重要 1465767
有的 1465734
累 1465263
进入 1465100
相关 1461932
刷 1460949
用户 1457448
计 1455376
巴 1454489
思考 1453750
回答 1452086
宁 1451463
数据 1450025
妹 1449417
断 1448376
细 1448060
武 1446858
曾经 1445043
小时 1444712
经历 1443716
适合 1443565
是一种 1440491
值得 1439100
破 1436963
而是 1436303
鲜 1434774
来了 1433842
冲 1433077
教师 1432218
切 1432128
普通 1431404
忙 1431015
部门 1430060
是我 1428761
实现 1427139
绝对 1425213
块 1423500
致 1421128
丽 1420996
广告 1419637
获得 1418045
也可以 1417487
纸 1417061
资源 1416373
完成 1416273
本人 1416040
自由 1415786
习惯 1415675
水平 1414881
政 1413995
官 1413633
科技 1411696
优 1409553
▁小 1409237
静 1409129
里的 1408143
简单 1406851
其中 1406392
雅 1405648
卫 1405210
提高 1404718
录 1404247
脑 1401319
发生 1401148
微信 1398794
营业 1398461
共 1397745
应该是 1395892
志 1393986
看了 1391095
也会 1390928
那就 1390136
杨 1388636
淡 1388424
出去 1387552
愿 1387418
折 1385215
圈 1384198
室 1383736
曾 1383447
粉 1380642
层 1379028
戏 1377973
原来 1375311
形 1375181
除了 1375072
案 1374675
准 1372944
是在 1370007
届 1369258
分享 1366032
空间 1364648
了一个 1363778
你说 1363420
政策 1362064
聊 1361422
也没 1360589
显示 1359971
面对 1359565
收到 1359559
好多 1359022
怀 1358801
衣 1358022
正常 1357542
新的 1357272
的时间 1357116
买了 1356916
派 1356818
命 1356153
掌 1355148
控制 1349290
具有 1348712
正在 1348324
久 1348047
投 1346322
波 1345858
先生 1345560
免费 1345364
原因 1344526
作者 1343083
宽 1341191
航 1341179
会计 1339878
挂 1339827
有限公司 1339477
好看 1338024
护 1336006
越来越 1333862
真正 1331113
党 1329948
独 1328186
的好 1327129
易 1327117
▁大 1325809
怎么办 1324922
农 1324686
园 1323606
开发 1323560
归 1322795
咨询 1320871
翻 1320309
鼓 1319701
一家 1319035
造 1318892
我说 1318392
以上 1317747
合作 1316792
馆 1316724
费用 1316477
理论 1316376
导 1315802
金融 1314530
草 1312784
爆 1311203
雪 1309278
就要 1308420
哈哈哈 1307748
较 1306814
经验 1304555
医 1304254
老公 1303557
基础 1301649
脚 1300093
朝 1299533
福 1297091
三个 1296563
这次 1295329
告诉 1294247
记得 1293398
不可 1291621
实在 1290939
必 1290738
保险 1290067
她的 1289711
思想 1285783
奥 1285755
不行 1284912
兴 1283066
怪 1281853
转载 1281383
哭 1281166
图片 1279973
购买 1279477
答案 1279367
作品 1279097
▁d 1277558
势 1277328
资金 1276953
秀 1274538
上网 1273109
模式 1272790
主义 1271387
够 1270546
汇 1269463
绝 1268816
来的 1267944
行为 1267747
硬 1267557
惊 1267059
备 1266743
圣 1266633
一切 1265850
并且 1265468
容 1265374
设置 1265055
去了 1262891
香 1262034
电视 1261771
痛 1260451
占 1258118
之间 1255880
用的 1255860
雷 1255541
收入 1252791
本来 1252738
便宜 1252351
责任 1252270
支付 1251472
文件 1250735
首先 1249807
第一次 1249443
的一个 1248539
灵 1248079
跳 1243525
做的 1241394
大概 1241304
全部 1239827
昨天 1238098
按照 1238054
操作 1237724
麻烦 1236984
机构 1235820
篇 1235635
弹 1235060
女儿 1234633
他们的 1233640
毕竟 1232748
注意 1231874
你好 1230858
报名 1230152
散 1228448
自我 1228416
纯 1227843
▁您 1227085
弱 1226731
若 1225485
亮 1225441
停 1225335
生命 1224377
那样 1222834
▁l 1222465
料 1222026
研 1221436
确定 1220468
老板 1219585
规定 1219418
人民 1218870
办法 1218800
帅 1218623
邮 1218086
味 1217713
哎 1217343
厂 1217241
我现在 1215637
有一个 1215331
如果你 1212829
整个 1211741
经营 1211681
人类 1211607
恩 1210081
负责 1209847
富 1209272
目标 1208668
媒体 1206952
轮 1206618
维 1206346
十一 1204252
员工 1203071
布 1202453
不断 1201698
待 1201253
价值 1199398
祝 1199239
差不多 1198574
都没 1196356
歌曲 1195257
支 1194533
注册 1193910
交流 1193731
制度 1193189
冰 1191838
爸爸 1191582
果 1191398
上班 1190721
明白 1190188
成长 1189169
不太 1187136
多了 1186740
不管 1186321
女生 1186202
骂 1185685
表现 1184876
帮我 1184707
有关 1183842
十分 1182304
▁今天 1182252
▁t 1181813
电子 1181683
青春 1181116
觉 1180996
速 1179752
举 1179579
解释 1178417
集团 1176463
杰 1176027
数学 1173795
下午 1173185
很难 1172945
不起 1172273
韩 1170750
根 1169944
烟 1169752
温 1168814
士 1167544
务 1167137
心理 1166583
涨 1166509
是因为 1166498
扣 1166237
政治 1165686
效果 1165683
旅游 1164815
梦想 1164225
韩国 1163635
内心 1162594
英 1159649
安排 1159183
傻 1158196
抢 1157112
一份 1156873
表达 1156781
高考 1156435
高中 1155871
你就 1153344
都没有 1152964
突然 1152611
档 1150172
不够 1149634
淘宝 1149626
魔 1148373
鸡 1145970
说话 1145065
材料 1144876
等等 1144697
学会 1144493
清楚 1143778
记者 1143423
宝宝 1142598
终 1142453
角 1142414
不懂 1142139
帮忙 1139949
意义 1139618
现场 1139603
救 1138538
乎 1137451
号码 1137404
兰 1136740
田 1135006
广 1134908
机会 1134453
了吧 1134323
助 1133949
他说 1133896
负 1133339
轻 1132098
百度 1132078
且 1132009
容易 1130792
目 1129760
限 1128560
不同的 1126786
批 1126186
就像 1125498
属 1125454
衣服 1124889
时代 1124016
简 1123197
都要 1122987
健康 1122496
老婆 1122355
反正 1121295
劳动 1120853
人物 1120830
封 1120115
了吗 1118561
架 1116284
就能 1115742
享受 1115435
的那 1114622
途 1113863
p 1113753
▁x 1111820
账 1111716
偏 1110675
现代 1108842
说了 1106922
都在 1106834
多少钱 1106317
到底 1105838
谢 1105273
打电话 1104061
要是 1103597
陪 1103054
看着 1102362
认真 1102341
建筑 1101921
什么时候 1101787
第三 1101549
执 1101347
保护 1099622
抓 1099251
运动 1099231
成本 1098985
不如 1097840
卷 1095977
来自 1095925
下去 1095836
的感觉 1095608
虚 1094853
练 1094738
深圳 1094571
大的 1094227
我不 1093745
阅读 1092649
租 1091929
更加 1090148
积极 1090147
吃饭 1088638
的朋友 1088203
有了 1087479
舞 1084775
记录 1084197
缴 1083472
实际 1083207
功能 1082268
苏 1081837
咯 1081631
还在 1080935
一篇 1080084
照片 1080074
蓝 1079953
胡 1077455
慢慢 1077395
▁她 1076514
也没有 1076076
防 1075532
女孩 1074473
各位 1074202
也要 1073830
更多 1073717
漫 1072666
重点 1072252
▁不过 1071195
树 1070907
台湾 1070848
嘻 1070630
吴 1070311
看来 1067949
貌 1067861
打开 1066951
莫 1066912
的大 1066827
叶 1066162
加油 1065567
营 1065381
就不 1065243
程 1064728
端 1063871
永 1063857
放弃 1063755
去年 1063657
上了 1062428
凭 1062110
终于 1062086
佳 1062075
五十 1060740
尼 1060731
豆 1059410
所有的 1058476
份 1057071
答 1056273
了一 1056140
不敢 1055841
报告 1055792
老人 1055103
灯 1054831
爸 1053988
聚 1053881
俩 1052804
之一 1050788
追求 1050518
同样 1050291
最终 1050284
重新 1050241
减 1049374
于是 1048433
来看 1047998
经典 1047795
有很多 1047443
彩 1047150
体验 1046510
综合 1045251
缘 1044907
显 1044285
贷款 1042963
范 1042654
参与 1042199
保证 1041982
甲 1041646
不得 1041599
名字 1041145
担心 1041007
医生 1039693
会有 1039424
互联网 1039303
列 1038757
项 1037801
印 1037137
最好的 1036790
家人 1036667
鬼 1033662
孙 1033620
镇 1033363
根本 1033347
阴 1033059
上面 1033042
无论 1032640
m 1031699
明星 1031502
鞋 1030780
铁 1030352
电视剧 1030224
我国 1030173
消费 1029321
学历 1029098
创新 1028765
嘴 1028127
身体 1027651
至少 1027107
全球 1026645
商业 1024838
兵 1024394
母亲 1023482
吉 1022536
赶 1021960
月份 1020304
的工作 1019901
性格 1019733
那里 1019700
晓 1018579
夏 1018022
设备 1017557
许 1017527
劳 1017403
茶 1016233
家长 1015258
人才 1015158
威 1014975
天天 1013998
香港 1013553
翻译 1012832
不可能 1012535
经过 1012460
阶段 1011854
方便 1011564
没什么 1011485
缺 1011448
共同 1011102
团队 1010551
降 1010270
年轻 1009973
愿意 1007743
性的 1007245
猪 1006737
四年 1006536
委 1006230
抽 1005144
酷 1005122
还能 1004431
功 1004099
象 1003880
套餐 1003534
敢 1003160
旧 1003055
告 1002000
罪 1001781
野 1001512
达到 1001214
赛 999427
创业 999036
或许 997788
沉 997477
过的 997330
足 995945
本科 994830
除 994404
丝 994333
听说 993915
课程 993912
骨 993729
居 993207
都可以 992976
不一样 992951
地区 992903
界 992508
提醒 992484
乡 991792
沙 991727
季 991647
工业 991493
本身 991389
需 991186
宣传 987103
做好 986435
积 985968
史 985942
事业 985888
检查 985720
资格 983063
历 982615
一张 982609
暴 982109
慢 980962
满足 980664
做到 980584
这边 980571
紧 979823
保持 979090
很有 979056
利用 978963
伦 978771
诚 976709
误 976621
她们 976522
关键 976201
抱 975226
景 974368
疼 973660
食 973455
七年 971575
几乎 970137
我都 968125
身份证 967818
广州 967551
房子 967162
过了 966829
齐 965860
亿 965323
而已 964576
应用 963388
争 963238
英文 962926
一个月 962386
暖 962344
股票 961160
一部 960899
尾 959910
建立 959721
脱 959566
玉 959003
棒 958819
泪 957380
十六 957064
都能 955973
几年 955943
认 955884
电信 955721
这就是 954830
众 954738
不知 954550
财 954308
安装 954191
平时 952344
独立 950394
盖 950370
创 949592
▁m 949298
有时候 949169
另外 948328
结构 947866
征 947816
资产 947003
偷 946735
闹 946400
通知 945250
父亲 944937
临 943821
英国 943113
任务 942308
善 941934
还可以 941843
均 941795
守 941204
欢迎 941159
母 941029
网友 940911
成了 940717
胜 940622
意识 940613
插 940313
识 939653
现在的 939357
咋 938866
错误 938566
至于 938379
评论 938241
也就 936833
许多 936573
一生 936400
峰 935769
文章 934984
载 934842
讨论 934835
超级 934297
回去 933846
唐 930873
详细 930350
认证 930331
既 929569
订 928965
美女 928373
羊 928269
能不能 927714
新浪 927013
娱乐 926399
出了 926154
兴趣 925543
境 925233
副 924917
桥 924292
混 923411
会议 923020
松 922943
毒 922793
一位 922044
麻 921753
核 921517
地址 921424
击 920889
的故事 920596
就算 919847
酒店 919839
顾 919476
精彩 919076
测 918511
调查 918046
赚 917903
跟我 917154
的一 916988
刚刚 916636
评价 915836
俗 914799
扬 914691
提出 914477
压力 914459
夫 914162
注 913681
审 912336
风格 911650
宝贝 910947
丢 910744
代理 910609
我会 909987
忍 908545
程序 908032
交通 907384
体育 907357
并不是 905979
是你 905142
连接 905052
蛋 904834
绿 904607
当地 903970
论文 903730
做了 903651
搜 903523
出来的 903012
钟 902659
变得 902363
看过 902160
盛 901421
免 900725
刀 900648
事件 899781
最大的 899280
一句 899160
期间 898012
一段 897988
你在 897641
对你 897335
的就是 896945
哪些 896683
年龄 896459
过程 896130
培养 895806
围 895566
传统 894881
迪 894848
圆 894406
风险 894337
招聘 894320
快递 893382
凡 892854
赵 892524
产业 892313
▁k 892221
供 892178
穷 891831
摩 891553
似 891488
苹果 891345
虎 891313
更新 890494
超过 890477
康 890351
主题 890139
往往 889867
带着 889853
寄 889791
下面 889695
亚洲 889179
每次 889003
敬 887826
好吧 886935
狂 886861
所谓 886636
熊 886567
具 885334
一条 884786
治 884770
让我们 884222
区别 884190
在于 882802
正式 882455
基金 881309
专家 880872
演员 880618
那是 880517
情绪 880435
农村 876348
真正的 875831
女性 875143
不上 874742
马上 874274
就有 873697
族 871707
告诉我 871291
你会 870814
方向 869863
闲 868587
改革 868025
含 867327
增加 867050
沟通 866484
右 865217
企 865153
需求 864388
想象 863162
的不 862853
漂亮 862705
库 861775
难道 861637
操 861450
恋爱 857801
提前 857668
的孩子 857056
犯 856193
回忆 856053
即使 855882
不仅 855563
对象 855381
后面 854629
跌 854087
主要是 853605
对我 853366
述 852908
变化 852276
不然 852029
童 851386
的发展 851377
厚 851334
普 849926
险 849080
创造 848991
美好 847586
查询 847055
变成 846723
调整 846599
导致 846347
规划 845829
身上 845685
可能是 845163
如果是 845002
长期 844813
理由 844608
萌 844604
宫 843940
左 843893
播 843797
执行 843673
不喜欢 842502
d 842452
我还 842287
也很 842133
这么多 841242
烧 840837
▁p 840565
真心 840323
感到 839559
爱的 839231
丰 838162
消息 838140
瓶 837998
痛苦 836747
微笑 836508
十九 835574
驾 834741
索 834189
大家都 834067
素 833758
读书 833685
泰 832210
主动 831525
欧 831115
手续 830311
给他 829913
小学 829365
在线 829224
真的是 829189
还没有 828956
以下 828902
就业 828117
仙 827972
一场 827894
研究生 827716
才会 826755
引 826270
顿 825551
令 825171
填 824409
是不 824304
g 824152
很喜欢 824116
付出 824002
记忆 823726
营销 823450
堂 823311
身边 821082
事实 820957
不少 820598
获 820416
售 820384
资本 820094
在这 819381
▁新 818773
满意 818101
状态 817728
粉丝 817648
在这里 817468
面试 817157
计算 816649
离开 816551
爷 816460
诺 816424
君 816262
带来 815705
软 814327
那么多 813927
说是 813623
早上 813339
港 813253
制作 813026
大部分 812555
文学 812391
更多的 812357
行政 812138
两年 811814
不错的 811767
首歌 811714
系列 811104
洋 810155
滴 809842
商品 809056
让他 808043
鲁 808008
蛮 807738
困难 807237
藏 806657
耳 806415
十七 805538
兄弟 805233
全文 804643
公司的 804631
思维 803509
卫生 803454
我去 802138
醒 802071
随便 801920
中国人 801888
每一个 801641
情感 801450
有哪些 801354
感动 800197
忘 799913
惠 799820
经理 799380
检 799354
形象 796440
岛 796041
置 795623
在哪里 795565
据 795368
国外 795141
湖 793349
舍 793057
环 792076
实践 791945
旅行 791552
民族 791448
很大 791295
睡觉 791190
迁 791153
残 790812
看的 789699
酸 789237
欢 788541
摇 788484
牙 788010
相对 786595
形成 786447
婚姻 786321
▁虽然 785969
结合 784832
子的 784823
似乎 784542
厉害 784438
礼物 783842
感受 783119
清单 782060
比较好 782053
娜 782015
呼 781613
并没有 781522
计算机 781161
态 780143
宇 779599
人都 779542
短信 779085
设 778037
娘 777966
消 777956
你不 777906
打算 777775
迟 777735
自动 777683
故 776195
劲 775283
看见 774981
可爱 774979
密 774485
心情 774124
启 774087
死了 773928
控 773863
万元 773569
勤 772593
提升 772569
倍 772456
实施 772378
年代 772209
洁 771502
形式 771420
行动 771025
同意 770125
生日 769036
道理 768922
年的 768260
丁 767827
欣赏 767485
凯 767244
产生 766606
严重 766566
这部 766211
徐 766174
统一 766172
登 766061
试试 765792
就好 765324
吹 765256
警 765127
中文 764276
废 763376
不再 761595
采 761072
同事 761055
还会 760903
我家 760721
的情况 760629
小孩 760468
展 760190
是一 759186
暗 759122
领域 759111
体系 759036
专业的 758766
因素 758746
儿童 758108
中央 756812
很多人 756526
习 755953
腿 755696
咱们 755691
摄影 755115
爽 755107
稳 755051
饰 754796
作业 754739
刻 753381
坑 753166
明确 752560
熟 752516
射 751839
磨 750961
四个 749814
哇 749595
我知道 749522
参考 748995
忘记 748852
不需要 748514
类似 748470
错了 748334
密码 747749
探 747748
时尚 747605
规 747534
背景 747229
星期 747039
个月 746411
方案 746064
离婚 745807
屏 745767
▁当 745647
明显 745290
全面 744908
受到 744217
演唱 744020
摆 743893
豪 743055
荣 742834
失败 742776
会员 742230
会不会 741625
箱 741562
态度 740328
泡 740132
辈 738864
时刻 738224
文字 738023
秋 737763
触 737646
的方式 736673
是有 736405
▁w 736229
拼 735705
剑 735376
完了 735110
在我 733696
增 733686
没人 733653
令人 733446
而不是 733347
有效 733044
摸 732868
速度 732185
欠 732159
作用 731402
有多 730779
之间的 730778
加入 729865
重庆 729550
呗 729309
想到 729191
欲 729073
不在 728586
很少 728466
当年 728181
依然 726922
第四 726458
也不会 726362
比赛 726025
块钱 726015
输 725771
既然 725629
贷 725499
利益 725450
透 724340
霸 724306
了很多 724126
关心 723825
斗 723437
有时 723413
它们 722586
意见 722341
拖 722227
大学生 721926
息 721795
笔记 721284
青年 720830
我和 720642
的心 720492
心态 720057
就在 719067
甜 718407
悟 718216
真实 718141
的意思 718111
纠 717276
秒 717267
天津 717026
尚 716777
胖 716294
居然 716267
总结 715939
话题 715293
滚 714569
方面的 714454
完美 713797
走了 713781
▁对于 713661
听到 713195
寻找 713096
巨 712707
开展 711986
直播 711911
火车 711848
聊天 711724
指导 711518
休息 710688
算是 710580
那边 710439
训练 710296
也就是 710148
进去 710110
中国的 709428
持 708985
烂 708852
是谁 708805
姐姐 708196
天气 707863
键 707846
帮你 707503
的原因 706316
炒 704465
去看 704325
页 703124
武汉 703114
限制 702636
鸟 701719
协议 701615
这个问题 701605
跟你 701556
抗 701493
道德 701383
文明 700890
弟 700498
懂得 700383
实力 700301
优秀 699431
物流 699425
造成 699276
议 698841
理想 698824
佛 698425
在中国 697882
程度 697618
测试 697522
庄 697326
颜 697028
仅 696829
幻 695930
是要 695809
寒 695757
戴 695755
消费者 695544
币 695358
结束 695092
庆 695015
证书 694902
充满 694847
和你 693818
浮 693694
我有 692965
从事 692819
增长 692253
懒 691785
双方 691493
和我 691186
社区 690816
好友 689374
垃圾 689320
时光 688436
竞争 688011
无线 687789
录取 687110
五月 686988
一本 686547
示 686441
时期 686371
类型 686238
访 686058
公开 685174
伤害 684358
赚钱 684314
保障 683929
工具 683508
菲 683429
治疗 682997
恨 682738
伴 682571
南京 682287
烦 681877
美的 681782
寻 681451
符合 681229
哟 680916
▁e 680535
照顾 679952
一千 679829
床 679626
承认 679160
闻 679013
互 678971
腾 678856
农业 678481
也不是 678286
它的 677292
接触 677056
反应 676311
嘉 676144
两天 676022
观众 675844
▁如果你 675118
收费 675098
留下 674924
▁王 674883
土地 674475
呃 674351
想想 672011
岁的 671881
针对 671825
典 671582
三四 671469
什么样的 671036
东方 671010
发布 670983
闪 670649
蒙 669745
路上 669327
相当 668678
吵 668188
动物 667798
末 667598
话说 667103
男生 666979
止 666448
餐 665952
拆 665846
墙 665666
主任 665412
稳定 665297
尤其是 665285
因为我 663684
财务 663615
丹 663588
论坛 663503
丑 663373
旗 663195
生物 662998
最高 662567
册 662147
吸引 662094
有可能 661401
用了 661367
盗 660716
钢 660457
在这个 660354
竟然 660344
生活中 659953
隔 659936
孩子的 659888
如今 659479
在网上 659079
太阳 658989
动画 658407
珍惜 658338
拿到 657842
诞 657571
伟 657417
放在 657173
成都 656541
薪 656270
公务员 656089
十四 655899
山东 655564
世纪 655482
亦 655227
响 655180
柜 654677
宋 654647
例 654186
就好了 654069
枪 653797
辛苦 653292
技能 653122
现金 653012
一日 652727
可能会 652427
▁v 652414
露 652206
尊重 652154
掌握 652088
必要 651795
生意 651693
划 651627
是为了 651129
撒 650649
还不 650433
专门 650361
唯一 650258
吸 650187
诉 650090
良 650086
您的 649870
年级 649052
后的 649031
素质 648980
拒绝 648378
反映 648094
杂 647567
贝 647278
不去 647040
锅 646922
女士 646498
呆 646412
伙 646211
害 646085
猜 646013
黄金 645796
你也 645739
严 645013
依 644882
进步 644764
及时 644631
实习 644519
赢 644282
矛盾 644072
船 643684
自信 643671
欺 643666
耐 643487
四十 643335
放心 642954
目的 642857
模 642304
在家 642048
英雄 641539
有所 640850
仓 640816
申 640594
六十 640584
更好 640529
不出 639982
一名 638862
有钱 638702
紫 637888
删 637050
f 636866
进一步 636488
鼓励 636429
朗 635675
隐 635102
校园 634975
挑 634244
报道 634112
哼 634038
特别是 632659
珠 631746
过程中 631696
姑娘 631552
导演 631523
为你 630845
实验 630745
喊 630457
概念 630040
凉 628960
考生 628829
而言 628550
阳光 628549
装修 628493
美丽 628098
挑战 627516
▁李 627323
整体 627122
都很 626368
曼 626246
看完 625130
颜色 625083
以来 625073
之类的 624965
再次 624840
范围 624191
附近 624185
梁 623705
荡 623228
剧情 622394
一定会 622317
术 622179
失去 621922
承 621805
大陆 621356
给了 621189
随着 621174
我自己 621155
妆 621104
承担 619384
梅 619160
的确 619133
多久 619112
瓜 618981
帐 618848
判断 618396
的名字 618257
信用卡 618219
家的 617090
不对 616947
版本 616679
智慧 616506
宗 616389
持续 615992
下的 615613
川 615506
每个人 615368
办公室 615100
每年 614881
你看 613977
遍 613926
要去 613275
皇 612736
灭 612563
没有什么 612457
表演 612444
畅 612427
不足 612106
帖 611903
汤 611842
印象 611173
父 610648
医疗 609491
的新 609266
拍摄 609236
男女 609166
杯 608261
祝福 607481
难以 607326
缩 606697
他是 606365
麦 605367
互相 605165
赏 605059
固 605007
美好的 604978
纪 604889
奔 604795
▁最近 603731
有着 602472
配置 602362
刺 602010
▁q 601807
瑞 601583
悦 601145
内部 601116
咱 600693
▁公司 600632
第 600468
矿 600259
告诉你 599918
亏 599611
医学 599593
应当 599544
声音 599329
工商 599298
n 598868
糖 598825
锁 598581
真的很 598304
一套 597533
辩 597206
跨 596983
第一个 596923
禁 596555
屋 595433
力量 595154
房地产 595019
热情 594787
净 594624
不多 594516
朱 594449
每个人都 594411
侠 594313
没想到 594088
我很 593864
轻松 593516
就可以了 593216
数字 593162
公共 593082
▁目前 593049
就行了 592750
这两 592637
歌手 592082
他人 591815
规范 591733
取得 591443
裤 591363
位置 591279
了个 591020
钻 590798
面前 590694
吓 590633
幸 590556
洛 590518
成熟 590510
疑 590491
重要的 590399
回到 590341
的想法 590236
延 590166
也能 589469
把自己 589187
周末 589082
长大 588757
挖 588374
郁 588032
体现 587937
你想 587670
更是 587432
郑 587054
法院 586763
拨 586613
距离 586373
统计 585918
镜 585622
逻辑 585564
人士 585561
敏 584869
搭 584547
待遇 584470
忘了 583946
的关系 583728
推广 583391
今 583211
遗 583134
潮 582796
登记 582533
人民币 582383
错过 582355
孤独 582199
症 581463
证券 581378
相互 581095
又是 580363
挣 579940
温暖 579687
不见 579676
报考 579653
初中 578989
哥哥 578433
机械 578424
两个人 578290
恒 578204
简直 577864
简单的 577805
薄 577224
参 576344
制造 576167
的世界 576062
孔 575958
司 575904
监 575814
投入 575037
但我 574550
优势 574315
晨 574285
尽管 573600
点击 573141
官方 573090
生活的 572861
多的 572536
搬 572316
乘 572178
确认 572112
玛 572006
大多数 571999
物理 571919
喷 571823
一句话 571601
五百 571241
协会 571121
幕 571102
角色 570946
客服 570879
心灵 570015
祖 569986
十年 569979
肯 569636
券 569627
事物 568652
逆 568552
赶紧 568316
仍 568261
了他 568260
合理 567917
效 567518
逛 567310
两人 567283
采用 566939
俊 566780
的学生 566743
杭州 566670
所谓的 566660
的方法 566526
前面 565837
委员会 565801
基本上 565266
高级 565207
动作 565086
不算 564869
升级 564662
一首 564614
西安 564400
找不到 564061
利润 563766
提示 563675
千万 562907
聪明 562889
郭 562635
你能 562601
描述 562592
其它 562372
忧 562272
健 562095
下次 561997
奶 561736
塞 561585
弃 561370
不一定 561119
把我 560987
合适 560583
休 560315
激 560134
细节 559713
夸 559712
塔 559487
食品 559432
是我们 559338
仍然 559302
琴 558760
尝试 558674
的机会 558527
伊 558141
适 557358
嫁 557338
小区 557296
原则 557119
是最 556470
加强 556278
鼻 556011
的样子 556009
夫妻 555700
但是我 555182
大众 555109
成立 554977
做出 554958
年前 554955
她说 554276
败 554256
最低 553755
就知道 553420
当你 553214
倾 553175
革命 552340
成就 552033
创作 551856
问我 551851
出生 551641
八十 551417
▁iphone 551413
醉 551318
联合 551069
年度 550803
然而 550705
做什么 550302
略 550025
胸 549807
稿 549783
星星 549727
始终 549315
损 549313
女朋友 549298
数量 549163
规则 549073
不容易 548203
广东 548052
侧 547853
丰富 547606
否则 547541
流程 547296
西方 547184
上课 546968
一边 546778
日子 546358
财经 545714
哲学 545587
搜索 545453
见过 545276
信任 545224
长的 545016
警察 544806
帖子 544600
b 544491
闭 544458
坚 544351
运行 544254
物质 543723
不是很 543545
宜 543054
施工 542987
唯 542302
出版 541818
连续 541277
的日子 541053
要有 541009
宾 540977
本书 540946
际 540914
灰 540740
对待 540708
化学 540652
给自己 540316
上午 539899
▁good 539862
况 539831
横 539580
一直在 539165
正确 538918
分别 538810
体会 538679
命运 538625
拔 538432
京 538248
奋斗 538064
把你 537900
复杂 537422
符 537294
到现在 537129
晒 537015
实际上 536784
教授 536670
的影响 536561
修改 536035
彼此 535898
蜜 535825
房产 535619
手段 535473
现象 535345
规模 535284
害怕 535226
德国 535142
洞 535118
附 534808
贸易 534632
动力 534594
或是 534480
深入 534363
多么 534361
这段 534124
这位 533776
飞机 533527
人在 533218
维护 532888
欧洲 532804
魅力 532344
加上 532301
开了 532160
的内容 532060
反而 531984
出版社 531777
美元 531714
逃 531542
震 531231
可惜 530480
胎 530386
宿舍 529904
妙 529885
财富 529574
购物 529553
战略 529401
决 529260
锋 529150
迹 528563
来源 528352
眼睛 528310
流行 528123
去做 527853
超市 527702
成员 527410
招生 527258
兽 527112
直到 527022
给我们 526950
心中 526946
构 526575
帝 526554
给予 526249
想知道 526117
各个 526114
不大 525836
服装 525804
一大 525680
所以我 525548
艾 525443
▁u 525334
佩 525224
等待 525142
仪 525025
没办法 524418
牵 523795
他在 523713
少年 523386
舒服 523337
编辑 523295
一旦 523289
固定 523121
星座 522728
伯 522627
粗 522566
高手 522562
严格 522422
迫 522268
甘 522239
高兴 522031
迅 522028
干部 521834
浅 521700
很不错 521577
群众 521320
谷 521297
半年 521221
谋 520925
潜 520711
仁 520280
怒 520151
孤 519769
另一 519753
▁com 519604
女友 519311
节奏 519254
有多少 519118
复习 518997
在北京 518971
即可 518748
浪费 517879
浪漫 517675
著 517656
另一个 517472
泉 517289
输入 516881
不住 516577
上学 516507
不得不 516305
汗 516283
今日 516101
看到了 516056
某些 516026
唉 515935
很好的 515320
妻子 515007
恢复 514917
心的 514890
观察 514691
炮 514609
的价格 514066
顺利 513879
能量 513815
的一种 513252
看起来 513207
强调 513065
轨 512764
瘦 512372
想起 512270
绑 512223
年轻人 512213
当初 512042
最新 511676
就没有 511650
分手 511555
骑 511451
十三 511389
唱歌 511328
浓 511023
的产品 510909
说过 510822
趋势 510686
井 510548
是很 510544
品质 510435
是指 509855
勒 509556
状况 509500
伪 509286
一开始 507855
律师 507797
区域 507579
适应 507532
失望 507432
通常 507188
奶奶 507163
想法 506919
查看 506371
的女人 505967
剂 505726
想去 505685
农民 505380
婆 505292
萨 504629
长时间 504382
毁 504377
强烈 504248
是对 504116
中学 504054
乌 504048
特殊 503577
快速 503491
冬 503446
出的 503432
自身 503077
尽量 502906
发行 502841
铺 502823
挤 502530
天下 502482
机关 502438
邮箱 502391
z 502373
大量 502079
我认为 501293
晕 501175
画面 500872
学位 500679
责 500648
一看 500443
移 500385
综 500179
战争 499894
很快 499821
摊 499621
让自己 499298
账户 499121
发挥 498897
把握 498820
统 498711
之中 498432
秦 498300
上市 498015
避免 497931
开放 497845
练习 497824
育 497334
生存 497142
取消 497102
闷 496821
有一 496535
的态度 496398
森 496182
工作人员 496088
例如 495666
大型 495648
滑 495578
将来 495354
赔 494988
我已经 494961
替 494606
二手 494388
一块 494219
默 493989
▁y 493783
c 493610
烈 493506
噢 493421
怀疑 492654
那就是 492347
剪 492294
一件 492046
博士 491924
嫌 491727
辛 491648
少女 491427
引起 491122
莱 490877
续 490868
坦 490034
紧张 489973
制定 489905
针 489863
的老 489810
抄 489661
有一种 489479
那天 489385
外国 489356
涂 489342
事儿 488889
截 488724
▁前 488690
正是 488531
股市 488488
岗位 488389
技巧 488112
辣 487873
中午 487656
集体 487439
允许 487425
处于 486220
动漫 486004
措施 485843
福利 485734
催 485454
债 485292
▁f 485239
胶 484958
两种 484923
剩 484779
运营 484552
一辈子 484547
姿 484433
重视 484396
专辑 484063
百万 483985
明年 483745
液 483729
早就 483686
每天都 483408
也不知道 483386
收获 483148
要么 483044
运用 482731
最佳 482641
好玩 482571
平均 482013
才有 481723
扫 481664
公里 481307
跟着 481127
扑 480963
擦 480947
包装 480662
巧 480557
耶 480511
杜 480487
遇 480315
偶像 480120
无聊 479810
见到 479340
桃 479163
简介 479149
描 479126
清晰 478627
背后 478270
相比 477949
返 477858
吐 477814
从而 477438
陆 477269
促进 477074
善良 477072
和谐 477058
即将 476923
贪 476737
太大 476721
准确 476541
叔 475886
第五 475737
劝 475693
仅仅 475673
o 475636
为何 475541
的行为 475399
愉快 475241
投资者 475241
突破 475192
四川 475080
惨 474596
题目 474560
栏 473830
狼 473676
遗憾 473620
中间 473557
寂 473285
疯 473051
减少 473049
充分 473005
能否 472866
来到 472641
浙江 472351
吃了 472324
了一下 471732
对自己 471525
很久 471328
逗 471151
缺乏 471084
策略 470869
意外 470811
搞笑 470527
攻 470328
展示 470245
罢 470086
个性 470070
其他的 469964
房间 469318
人口 469172
启动 469104
工厂 469028
湖南 468512
为主 468015
y 467652
必然 467576
讨 466740
幼 466344
顾客 466293
从小 466249
墨 466048
几次 465949
三天 465881
男孩 465502
杂志 465468
▁本 465401
爹 465052
的要求 465020
婆婆 464978
扯 464810
润 464697
悠 464639
证据 464479
师傅 464411
喂 464105
的情况下 464096
壮 464069
影片 463884
徒 463802
采取 463286
技 463018
记住 462761
炎 462759
艳 462667
饿 462497
后悔 462305
核心 461854
危机 461825
扰 461438
新年 461406
t 461340
▁另外 461284
吃的 460829
不愿意 460814
皮肤 460720
大大 460494
宏 460455
兼 460400
筹 459950
也在 459917
虫 459538
平安 459532
集中 459358
更好的 459349
译 459251
妇 459142
午 459072
整理 458972
刚才 458848
讯 458613
尊 458472
机器 458451
我可以 457869
驾驶 457753
最大 457707
媳妇 457616
可怜 457340
你怎么 457203
一致 457086
说什么 456826
熟悉 456798
嘿嘿 456591
抵 456578
乔 456449
浪 456390
民主 456340
名称 456014
还真 455940
出口 455531
纹 455501
财产 455324
频道 455263
漫画 455124
希 455056
一只 454985
具备 454756
岗 454526
指数 454248
昌 454065
叹 454013
写作 453437
益 453055
重大 452958
无限 452729
什么是 452682
哪儿 452557
只会 452340
激情 452101
幼儿园 451763
地点 451745
学期 451508
男子 451436
工作的 451417
见面 451412
江苏 451274
释 451068
之外 450727
就这样 450602
惊喜 450583
窗 450436
组合 450386
那时候 450365
犯罪 450330
揭 450273
虽 450188
肯定是 449872
观念 449551
刑 449457
五个 449397
法国 449362
有限 449323
婚礼 449252
教材 449191
疯狂 448978
地铁 448897
司机 448820
买房 448696
当天 448558
传播 448410
美术 447967
究 447877
违 447752
遥 447682
居民 447634
碰 447520
渠道 447403
避 446808
智能 446649
问题的 446610
档案 446528
小姐 446513
▁o 446205
的过程 446161
邀请 446075
随时 446026
孩子们 445867
妹妹 445833
签证 445832
好处 445687
的专业 445134
留学 445059
一段时间 444980
肤 444850
暂时 444810
高校 444797
碎 444570
干净 444518
也好 444386
赔偿 444293
定义 443843
我不知道 443781
所在 443588
高的 443544
世界上 443469
用心 443158
宣 443071
青岛 442689
行情 442271
去找 442199
是怎么 442105
学术 441904
鹿 441836
盒 441786
陌生 441608
男朋友 441511
耍 441239
单纯 441218
海外 440888
播放 440841
公安 440478
柔 440314
聘 440073
荒 439387
观点 439361
理财 439270
引用 438685
补充 438627
戒 438200
情节 438159
姆 438014
撞 437974
特色 437900
陪伴 437441
特点 437408
纵 437343
回事 437212
理性 437133
读者 436937
锦 436514
施 436443
地位 436165
出发 436040
大师 435956
勇 435855
频 435853
分配 435693
忠 435656
打造 435561
色彩 435281
储 435215
当中 434847
硕士 434133
彻底 434119
反对 434069
讨厌 434004
己 433347
在你 433193
行的 433156
逐渐 433123
朴 433058
指标 432263
信号 432245
跪 432208
爷爷 432200
的声音 432171
上去 432080
至今 431758
地说 431723
判 431710
科目 430877
困 430858
角度 430414
情人 430282
▁今年 430243
机制 430220
的第一 430193
腰 429906
的人生 429900
每月 429790
公平 429673
效率 429565
生的 429553
▁h 429253
多次 429213
腾讯 428880
谅 428736
进行了 428708
提到 428560
阵 428523
广大 428418
损失 428268
推动 428114
普遍 428018
小米 427897
一半 427887
冒 427228
的男人 427130
日期 426998
春节 426725
收益 426719
过于 426574
毕业生 426560
一遍 426300
茫 426150
男友 426066
序 425978
诸 425912
三个月 425784
感恩 425719
串 425586
相处 425280
▁根据 425219
的结果 425149
下班 425138
的主要 425073
给她 425007
的基本 424960
▁第二 424931
上次 424733
燕 424732
到的 424659
好吃 424484
自主 424404
常常 424134
检测 424119
一切都 423865
打工 423611
偶 423608
龄 423550
到底是 423411
屁 422872
得很 422746
确 422706
职工 422520
手术 422462
监督 422138
我一直 421626
最多 421497
第二天 421417
还是要 421392
浩 421244
客观 421130
你知道 421050
站在 421021
玩家 420634
显得 420384
兼职 420356
总会 420354
坚强 420258
小时候 419716
献 419603
链接 419559
定位 419497
染 419340
欢乐 419189
让她 419169
稀 419102
膜 419083
妖 418966
爱心 418912
指出 418768
和他 418579
尘 417875
上涨 417764
泽 417741
也不能 417700
如下 417578
夹 417561
狮 417491
河南 417322
大会 417262
的能力 417009
完善 416884
让他们 416637
发展的 416607
月亮 416548
训 416295
大小 416012
▁然而 415859
始 415788
振 415662
的三 415601
掉了 415358
女子 415326
信用 415174
规律 415062
全世界 414782
怀孕 414757
环保 414267
如果有 414194
举办 414153
耗 414069
年纪 414038
卧 413757
趣 413728
货币 413714
材 413650
敌 413645
道路 413558
贤 413509
饱 413308
的重要 413306
维修 413182
金额 413133
好久 412878
蟹 412698
头发 412625
研发 412541
渣 412428
排名 412375
仔细 412353
候 412268
多个 412215
在一个 412088
出门 412058
推进 411997
对他 411942
没有人 411857
危险 411840
氏 411767
一步 411672
郎 411003
灵魂 410963
理念 410911
引导 410892
瞎 410867
他就 410866
糊 410863
袭 410261
▁ps 410256
泥 409924
认可 409874
通信 409790
污 409546
不清楚 409435
足球 409396
进口 408468
广场 408339
不好意思 408246
被人 408099
账号 407976
除非 407084
隆 406844
成功的 406761
死亡 406408
这个世界 406396
咖啡 406379
贡献 406344
小的 406221
是真的 406138
不怕 406067
果然 406036
的照片 405792
想着 405284
冠 405092
十几 404822
协 404730
斤 404584
的作品 404457
生气 404359
降低 404302
▁app 404277
学科 404160
阅 403952
活着 403646
带来的 403577
两次 403276
子女 403107
倒是 402945
肥 402648
颖 402582
当前 402468
机场 402461
腻 402355
脉 402302
配合 402289
用来 401883
偶尔 401814
舞蹈 401600
夏天 401399
的一些 401364
勇气 401210
丈夫 401129
孝 400735
化的 400569
比例 400505
乙 400273
洪 399986
下了 399967
创意 399953
奇怪 399922
另 399835
解答 399801
无数 399668
不一样的 399246
退休 399091
案件 399034
将会 398935
周围 398927
胆 398902
在此 398851
刺激 398482
玫瑰 398379
遇见 398340
个小时 397983
幸运 397649
有一天 397340
谱 397132
人心 396829
对比 396793
x 396509
毫无 396135
加盟 395860
奢 395860
拳 395709
我又 395246
房价 395058
稍 395035
可以用 394963
悬 394875
中华 394818
我相信 394655
七十 394637
秘 394538
舞台 394506
激动 394444
绘 394348
弟弟 394338
房屋 394273
航班 394031
幸福的 393883
可以在 393635
官网 393560
羽 393559
最重要的 393508
今晚 393425
并非 393401
成人 393316
用于 393225
承诺 393201
挡 393180
有机会 392797
辞 392357
扎 392124
积累 392045
的历史 392042
赠 391929
收藏 391876
车辆 391766
每一 391612
湿 391419
尖 391150
只要你 391018
娃 391007
采访 390968
那时 390866
亲爱的 390429
代码 390372
融 390192
采购 390060
这款 389675
纱 389669
无奈 389434
凑 389319
诊 389300
工程师 388942
正规 388516
热爱 388315
旁 388298
一人 388129
到达 387778
又有 387566
住房 387374
志愿 387353
依据 387228
无论是 387210
融资 386648
促 386641
风景 386589
只不过 386413
感兴趣 386058
义务 386048
工人 386015
人数 385876
会在 385634
状 385514
有些人 385480
很重要 385207
院校 385111
大哥 385072
客户端 384959
就不会 384825
攻击 384607
特征 384485
身份 384458
公布 384413
格式 384358
日常 384295
进来 384197
删除 384158
群体 384023
旁边 383834
这句话 383673
却是 383405
窝 383380
▁j 383352
女神 382920
寞 382801
冠军 382755
一路 382586
繁 382453
羡慕 382222
一款 381941
大连 381822
石油 381813
打印 381725
付款 381503
权力 381077
我们要 380932
很高 380860
我最 380795
近期 380770
观看 380767
勇敢 380719
正确的 380672
更有 380614
▁ok 380583
涉及 380527
瞬间 380514
一是 380339
郑州 380157
多年 379908
作家 379699
添加 379614
召开 379480
怨 379386
的表现 378987
某个 378868
基于 378737
面积 378506
般 378452
链 378194
心理学 378118
缓 377905
的作用 377502
课堂 377287
很容易 377109
盐 376989
据说 376526
门口 376396
策划 376388
是可以 376315
苏州 376219
投诉 376040
意味着 375934
了几 375926
我们在 375840
耐心 375768
句话 375761
尿 375725
装备 375575
的精神 375550
真实的 375417
权利 375303
锻炼 375247
外面 375214
辅导 375007
例子 374998
哆 374662
都不会 374651
接下来 374178
监管 374164
加拿大 373891
一部分 373663
裸 373577
做一个 373479
这一点 373140
俺 372657
e 372516
主席 372373
组成 372216
姓 371836
漏 371800
或者是 371683
中介 371611
奏 371352
推出 371300
奋 370557
看好 370520
学生的 370395
得了 370382
信心 370377
股东 370261
觉得自己 369971
熬 369740
预测 369678
篮球 369602
明明 369532
的公司 369277
这不是 369230
合格 369083
抑 369063
暑假 368914
妥 368722
饼 368620
磁 368557
某种 368508
争取 368209
卑 368066
印度 368007
者的 367969
这类 367899
亿元 367407
孕 367269
企业的 366737
文艺 366501
股份 366396
朋友们 366390
烦恼 366032
恐怖 365794
开车 365591
沈阳 365570
教练 365550
脏 365547
差异 365337
哪怕 365063
商务 365003
纪念 364933
吊 364864
哒 364839
总之 364778
分子 364749
大多 364484
涉 364408
寿 364323
一点点 364087
莲 364071
耀 363849
对此 363827
分为 363391
众多 363198
属性 362944
一片 362902
牢 362813
优秀的 362785
须 362735
场景 362646
做过 362588
芳 362552
加班 362450
仔 362436
邓 362406
介 362346
谦 362309
举行 362177
堆 362109
是我的 362087
六个 361762
愈 361671
的信息 361553
等到 361469
莉 361340
炸 361306
的思想 360686
闺 360589
们的 360491
感受到 360143
鉴定 360110
辉 359812
负责人 359790
炼 359783
东北 359781
猛 359750
路线 359736
层次 359658
物业 359642
翔 359640
验 359603
爬 359589
飘 359425
镜头 359413
回报 359393
看得 359354
思路 359335
古代 359147
空气 358584
夺 358537
性质 358499
样子 358261
一周 358168
要做 358135
财政 357990
壁 357870
案例 357825
雄 357813
批评 357718
拍照 357496
正好 357493
钢琴 357484
等级 357407
生态 357364
这件事 357353
这就 357176
这两个 357126
玲 357064
济 357022
评估 357000
足够 356966
完整 356801
联盟 356787
一把 356648
的角度 356611
鸣 356492
一群 356470
欲望 356365
否 356331
兄 356317
蓄 356233
登陆 356155
鼠 356072
良好的 355849
眉 355839
成果 355801
▁第 355796
而不 355245
勾 354983
三星 354835
的意义 354784
相关的 354731
实行 354643
这也是 354558
有一些 354455
可怕 354439
浦 354377
很简单 354348
哀 354243
接近 354015
此时 353995
包含 353963
的高 353941
这本书 353928
出现了 353586
尽快 353389
及其 353212
的同时 353108
迈 353102
廉 353089
影视 353059
吻 352889
事故 352380
上下 352250
舒 352174
同时也 352160
才知道 352016
广泛 352006
真相 351973
舰 351941
探索 351599
这种情况 351575
利率 351564
地球 351430
阻 351429
做事 351001
其次 350809
南方 350715
真诚 350693
一面 350663
构成 350639
▁z 350627
亲戚 350618
走向 350613
渴望 350561
叫做 350549
幻想 350511
互动 350448
兔子 350236
是他 350227
屏幕 350170
刊 350167
咬 350061
信仰 349966
司法 349957
不必 349945
接到 349923
凤 349842
有人说 349785
国家的 349699
经济学 349248
疑问 349017
曹 348920
胃 348905
骚 348847
电池 348632
没有任何 348475
津 348466
突出 348348
分类 348249
是由 348243
养老 348106
九十 347921
之所以 347883
少了 347620
演出 347603
看不到 347585
迅速 347558
小心 347365
不动 347282
的心情 347164
阿姨 347158
平衡 346857
强大 346584
竹 346522
谎 346334
形容 346177
注重 346044
加工 346042
汽 345998
驻 345861
亡 345754
使得 345645
在意 345569
朋友圈 345347
驱动 345070
袋 344817
姑 344782
一颗 344489
多多 344458
公众 343931
同志 343606
接着 343595
体制 343370
靠谱 343302
空调 342987
乳 342893
▁win 342498
是中国 342487
的社会 342359
幅 342201
登录 342176
瓦 341740
存款 341031
在美国 341013
上有 340986
力的 340924
联想 340806
看到的 340669
跟他 340395
社会主义 340189
展现 339975
市场的 339903
兑 339772
转移 339766
旺 339419
碗 339395
新生 339370
摄 339330
都知道 338954
对话 338696
大赛 338585
砖 338448
性能 338366
一项 338345
临时 338247
欣 338187
阔 337855
纲 337643
汪 337183
演技 336588
实用 336585
弯 336366
抚 336254
预期 336237
节日 336183
蛋糕 336012
庭 335971
谣 335937
一分 335810
贫 335664
扇 335626
高端 335608
上帝 335557
垫 335548
国产 335545
美丽的 335487
女孩子 335112
人和 335036
年底 334916
厌 334901
公交 334874
人事 334749
事实上 334730
二是 334685
神经 334654
翼 334467
上来 334388
老百姓 334198
渡 334141
晋 333955
cc 333917
改善 333765
服务器 333648
厂家 333644
科研 333626
第六 333508
必须要 333407
宿 333343
基地 333195
打了 333140
维持 333088
是从 332855
凤凰 332801
宗教 332701
只想 332696
楚 332463
授 332063
旦 332033
其实是 331951
厦门 331936
上升 331874
市民 331819
学费 331555
发出 331495
迎 331326
坊 331238
获取 330849
京东 330827
柳 330767
玩笑 330736
不清 330487
移民 330414
健身 330230
演讲 330224
a 330197
煤 330067
合法 330050
名单 329851
尴尬 329713
正常的 329634
珍 329349
娇 329104
魂 329080
就开始 329045
到处 329016
都市 328920
绿色 328904
超越 328813
俄罗斯 328675
红色 328559
会被 328448
温柔 328342
希望能 328331
燃 328207
缺点 328094
埋 327946
模拟 327946
篇文章 327794
的学习 327751
在那 327661
前提 327503
社会的 327419
这家 327349
▁据 327284
如果没有 327113
为什么要 327042
环节 326816
愁 326645
在我们 326490
根本不 326462
公告 326389
脾气 326333
阶级 326196
营养 325740
总体 325662
造型 325653
未来的 325547
虚拟 325510
扩大 325356
原本 325345
因为他 325132
作为一个 325122
味道 324900
崇 324862
籍 324631
扭 324553
侣 324399
猎 324189
重复 324113
裂 324077
级别 324045
的中国 323872
故意 323862
地图 323843
它是 323734
灾 323728
臭 323692
则是 323477
贯 323428
商家 323421
各自 323151
壳 323138
打击 323110
患者 322927
首次 322923
炫 322915
巡 322832
邪 322788
黑色 322634
拿着 322627
冲突 322615
下降 322518
的生命 322455
的所有 322421
公益 322278
新人 322219
高速 322116
的路 321978
如果不 321935
图书 321885
忽 321867
湾 321830
精力 321685
医药 321680
华为 321630
动态 321416
薇 321285
干什么 321141
肖 321128
租房 321056
给大家 321001
蝎 320969
在那里 320888
的目标 320796
恐 320689
承受 320595
的观点 320583
支撑 320574
业绩 320569
肚子 320476
放假 320305
博客 320103
差距 320100
我们就 320058
贺 319980
审核 319950
涛 319766
收购 319572
变成了 319276
域 319245
宅 319235
一定是 319193
的文章 319179
植物 319155
晶 319102
乐观 319026
不下 318946
躁 318895
害羞 318891
一级 318758
宣布 318654
的房子 318646
面临 318601
递 318428
注定 318339
幽默 318292
叙 318176
店铺 317891
原创 317837
冻 317737
唤 317640
霍 317633
办公 317460
图书馆 317441
昂 317396
桑 317377
依赖 317340
几十 317272
产品的 317016
合适的 317012
邻居 316948
抛 316843
显然 316546
继 316498
铃 316240
深深 316136
假期 316009
仇 315973
依旧 315968
辱 315874
非常好 315835
具体的 315666
不像 315578
愿望 315554
贸 315158
邦 315062
交往 315049
笨 315049
一批 315033
派出所 315023
验证 314985
职位 314975
凌 314893
旅 314832
不久 314806
违法 314717
平凡 314624
即便 314513
预计 314425
韵 314268
沿 314166
我真的 314135
很大的 313864
增值 313760
标志 313675
不停 313551
▁第三 313543
和平 313385
蔡 313350
岩 313270
拟 313031
回归 312984
期货 312984
预算 312972
好评 312940
穿越 312834
先进 312759
起了 312646
协调 312583
桌 312544
今天的 312428
航空 312401
欧美 312394
就把 312378
男性 312002
金钱 311512
作出 311413
江西 311280
抱怨 311157
毕 310957
解放 310893
的知识 310841
雾 310810
稍微 310752
结论 310511
找工作 310505
表面 310431
公园 310411
河北 310321
前的 310228
夕 310207
走势 309999
武器 309952
逝 309920
皆 309801
发生了 309500
电视台 309452
狐 309443
柏 309361
踢 309335
短期 309107
庸 308998
反复 308925
粮 308754
网页 308701
身边的 308568
利息 308014
像是 307912
默默 307888
学者 307693
衰 307600
一般的 307543
患 307394
难度 307230
说实话 307186
府 307178
广播 307153
不及 307124
陶 307102
对外 307092
可以说 307009
这份 306982
踏 306900
痴 306866
过去了 306863
深刻 306835
原理 306734
棋 306608
碰到 306456
律 305957
内地 305924
电商 305821
主流 305575
寸 305574
基因 305295
原油 305194
装饰 305114
之处 304849
天的 304811
坐在 304802
这是一个 304770
人群 304666
喝酒 304632
之下 304573
忌 304518
讲述 304477
几百 304439
平常 304415
鸭 304400
吐槽 304320
▁mv 304108
民警 304080
很棒 304039
刚开始 303984
董 303505
平等 303420
尤其 303269
魏 303266
航空公司 303118
上映 303059
捷 303042
设计师 302999
检验 302976
一系列 302667
一方面 302646
赤 302632
安徽 302616
握 302558
主体 302455
美容 302360
洒 302327
济南 302320
席 302306
喵 302238
同学们 302212
呈现 301675
竞 301525
赌 301379
云南 301220
本文 301124
减肥 301067
酱 300799
▁do 300720
辞职 300600
会出现 300470
表明 300385
骄傲 300324
认定 300265
又要 300260
安静 300207
社交 300206
共享 300203
公主 300121
私人 299966
决策 299561
军事 299519
察 299194
惯 299193
大人 299170
了两 299156
概 299050
逸 298940
回应 298810
的心理 298779
▁除了 298655
烤 298609
消失 298604
押 298534
税务 298532
愚 298465
各类 298318
凶 298316
模型 298314
炉 298298
肠 298041
小编 298012
琳 297774
撕 297626
金属 297585
搭配 297557
敏感 297556
传奇 297371
相同 297366
奸 297341
恰 297341
下跌 297222
扔 297127
惹 297059
不论 296588
生育 296509
有过 296326
考核 296203
完美的 295977
小朋友 295897
此次 295867
妮 295477
球员 295345
径 295255
的目的 295118
运输 294974
设施 294886
突 294855
报警 294790
近日 294736
回头 294719
铜 294718
书籍 294696
宠 294653
详 294568
今后 294402
赖 294088
衷 294036
白色 294034
朵 293801
不变 293763
把它 293689
假如 293678
硬件 293613
尝 293587
来讲 293327
价值观 293303
他还 293253
复制 293188
定制 293169
堵 293022
提交 292927
个体 292909
捧 292909
工艺 292848
长沙 292837
周年 292831
最初 292711
不管是 292668
没错 292599
得到了 292575
的美 292155
想过 292040
就是在 291949
性价比 291909
也就是说 291800
现状 291687
撤 291657
姐妹 291647
买卖 291581
坚定 291557
能源 291491
尸 291377
中有 291315
童年 291239
专利 291090
大约 291079
喜爱 290996
来看看 290967
一定的 290936
认同 290933
岳 290854
就是一个 290821
疾病 290760
▁日本 290756
的企业 290689
元素 290683
新鲜 290585
比如说 290434
敲 290414
掩 290260
莎 290226
用品 290219
污染 290200
度过 290111
池 290109
情况下 290023
赫 289990
宇宙 289833
网易 289828
裁 289743
沈 289735
后期 289668
安慰 289595
鞋子 289544
邮件 289535
我们可以 289468
锐 289452
的需求 289154
毅 289036
他也 289000
认知 288989
羞 288751
的一切 288737
的研究 288713
走到 288707
祸 288652
一线 288650
得多 288633
恐惧 288467
带给 288383
说到 288284
批准 288113
优化 287870
高度 287735
眼里 287710
桂 287556
周期 287542
tv 287541
甚 287531
商场 287269
餐厅 287146
疲 287098
跃 286998
确保 286899
补贴 286686
向上 286502
的价值 286435
喻 286325
呵 286129
盈利 285982
傲 285958
周五 285821
慧 285576
狠 285522
的力量 285440
贱 285343
要把 285147
增强 285015
主角 284977
保留 284968
能在 284952
天空 284931
祥 284847
实体 284410
题材 284393
透露 284338
小组 284318
留言 284198
伟大 284074
相反 284058
关闭 284000
同一 283975
溪 283812
诉讼 283812
得意 283797
友情 283566
氛围 283519
权威 283351
居住 283189
冯 283107
引发 283047
业主 283045
队伍 282775
澳洲 282726
委托 282531
抓住 282488
山西 282262
湖北 282250
柱 282230
砸 282173
转让 282081
冬天 281935
蒂 281867
估 281850
屎 281835
的看法 281704
伟大的 281680
诱惑 281625
玻璃 281596
抹 281489
腐 281418
遭 281357
落实 281185
主持 281069
不愿 280978
委屈 280852
内涵 280774
要想 280713
祖国 280710
都被 280641
裙 280610
保存 280227
虐 280220
是非常 280151
交给 280067
当下 280053
硕 279929
人格 279867
其他人 279843
几个月 279809
美国的 279793
还有一个 279761
尺 279734
神奇 279646
蛇 279646
做得 279501
上述 279470
悲剧 279458
送给 279437
答应 279414
割 279351
昨晚 279184
神秘 279160
小伙伴 279019
契 278448
苍 278406
前景 278402
北京市 278384
罚 278052
式的 278026
把他 278008
躲 277881
世界的 277785
腹 277747
叛 277691
曝光 277616
主持人 277351
槽 277167
颇 277007
党的 276711
盈 276624
▁no 276621
告知 276619
白天 276548
享 276477
煮 276475
召 276473
的基础 276456
绎 276227
住了 276094
可见 275861
穿着 275817
歪 275791
公民 275787
旋 275756
当我 275667
誉 275645
新加坡 275625
签订 275555
花了 275427
疗 275280
单独 275129
循环 274815
体检 274654
这条 274651
身材 274544
框 274411
约定 274308
名的 274197
创建 274114
物品 274098
考察 274063
找到了 274018
传说 274008
转变 273963
人力资源 273934
运气 273932
展开 273680
地理 273628
的环境 273578
的中 273515
差别 273272
周一 273265
就是要 273175
坛 273069
缴纳 273042
▁id 273035
充电 273020
轰 273011
多种 272962
泄 272934
暴力 272786
的选择 272712
桶 272490
些什么 272297
订单 272085
后果 271869
肩 271806
的变化 271753
官员 271710
行业的 271654
导师 271545
手里 271493
竟 271409
赋 271278
一件事 271276
锡 271250
电力 271219
玩具 271154
战斗 271115
姜 271080
访问 270737
玄 270485
补偿 270447
流动 270370
水果 270188
了一些 270155
依靠 270024
的衣服 269961
不但 269862
趁 269758
语音 269735
但在 269544
季度 269540
元的 269521
呐 269434
洲 269383
胜利 269301
的国家 269160
期望 269140
渐渐 269037
鹏 268963
监控 268842
诚信 268822
一声 268800
持有 268791
现有 268743
暂 268739
相机 268708
的支持 268628
厕所 268596
才可以 268491
萧 268439
纯粹 268288
是以 268199
在他 268185
墓 268130
传递 268091
在国内 267916
质疑 267878
潘 267872
立即 267824
猴 267809
从此 267808
随意 267788
缺少 267674
仿 267600
以外 267482
的位置 267347
成交 267341
美食 267340
大脑 267256
绕 266954
淫 266914
提问 266909
月底 266769
随后 266680
在上海 266671
举报 266645
甩 266610
生病 266529
第十 266521
抱着 266236
放下 266225
沟 266186
纷纷 266137
层面 266055
疏 266040
一直都 265995
究竟 265973
兴奋 265699
映 265519
拿出 265507
丫 265440
视觉 265407
棉 265369
探讨 265183
呜 265037
我希望 264846
卸 264822
失去了 264770
破坏 264693
兔 264690
报价 264451
妻 264424
多数 264368
事业单位 264361
依法 264274
奖励 264205
拒 264150
传媒 264060
系统的 264026
巨大 263965
俄 263953
▁随着 263931
时代的 263803
种种 263778
愧 263744
勿 263601
国务院 263501
这时 263297
束 263233
岸 263225
盆 263218
相似 263137
身高 263032
焦 262952
眼前 262873
慌 262866
▁此 262821
春天 262633
不高 262610
全家 262556
线上 262451
还需要 262305
非常的 262209
蠢 261972
放松 261931
摔 261907
的前 261733
鸿 261712
适当 261695
球队 261621
沪 261620
发送 261557
但他 261535
牲 261523
姨 261395
进了 261375
想要的 261317
荷 261191
招商 261106
手指 261052
毕业后 260943
诶 260900
的感受 260745
感觉到 260673
贾 260631
事项 260619
开启 260519
一刻 260454
国民 260367
逢 259824
指定 259790
姓名 259757
通讯 259750
消防 259742
可爱的 259735
偿 259720
丰富的 259399
东莞 259395
策 259287
简历 259284
奴 259269
耻 259188
唯一的 259162
娶 259121
主管 259058
斥 258743
涯 258647
板块 258600
牧 258596
铭 258518
温馨 258455
途径 258396
粘 258394
轻易 258388
说道 258364
陕西 258356
询问 258286
生命的 258207
怎 258151
乃 258065
不止 257990
事务 257968
上传 257965
销量 257792
主人 257690
淘 257586
要在 257572
模仿 257541
表情 257455
教室 257367
是否有 257323
日报 257279
三大 257163
巨大的 257143
汉语 257134
肝 257011
屈 256948
收集 256946
筒 256896
亿美元 256874
很强 256845
奥运 256793
申报 256783
苗 256724
友谊 256658
过去的 256486
优点 256428
给他们 256395
部队 256251
书记 256245
性感 256224
逐 256133
第二个 255777
学员 255745
零售 255689
包容 255683
漂亮的 255681
的具体 255629
▁it 255596
宴 255531
就被 255464
泼 255400
从未 255258
朝鲜 255228
看待 255148
颗 254875
以上的 254785
最后一 254498
半天 254415
客人 254413
师范大学 254228
提供了 254116
我们会 254051
的状态 254029
的服务 253994
惜 253777
一方 253750
肌 253745
的经验 253714
教育部 253663
广西 253598
一台 253484
悔 253459
出售 253449
较大 253357
民间 253301
我们也 253237
晴 253208
▁由 253083
从来不 253020
家具 253008
缠 252997
饮 252976
绝不 252947
摘 252934
蒋 252841
资讯 252691
基层 252612
气氛 252590
的过程中 252303
虑 252236
应对 252191
恐怕 252157
的技术 252136
咪 252029
第七 252025
赴 251990
市场上 251791
真理 251762
铁路 251732
这也 251699
毛泽东 251382
温度 251296
逐步 251280
抬 250891
犹豫 250368
了不少 250292
大量的 250269
改造 250250
意识到 250225
总统 250193
滋 250132
侦 250087
俱乐部 250071
倾向 250027
寺 249992
给出 249776
粒 249731
所说的 249691
积分 249675
强制 249585
新疆 249556
姚 249526
处罚 249519
感激 249377
形态 249250
秤 249225
胀 249005
忽略 248981
鑫 248749
早已 248650
碧 248596
授权 248568
昆 248449
啪 248441
周边 248304
性和 248262
这个时候 248108
停止 247994
杆 247971
会上 247962
设定 247866
震撼 247844
柯 247795
好事 247704
对我们 247650
达成 247363
虾 247334
缝 247229
走过 247123
丧 247111
番 247063
狱 247061
嘲 246683
校长 246674
泛 246550
这样一个 246537
日前 246499
的手 246476
一代 246321
第二次 246215
纪录 246107
踏实 246089
填写 246001
舌 245939
同行 245800
全民 245655
萝 245518
恭喜 245504
芬 245319
犹 245146
有效的 245131
执法 245112
本次 245049
股权 245028
自从 245012
家族 244930
择 244909
羯 244602
勉 244572
继承 244570
不明白 244557
起床 244521
奉 244505
矩 244444
辰 244437
纽约 244354
不良 244295
撸 244236
受伤 244194
绵 244066
的存在 244019
的设计 243969
定期 243912
优先 243905
出现在 243851
前期 243845
越多 243829
任何人 243706
瘾 243465
相应的 243067
漂 243000
扶 242983
为止 242894
送到 242824
深度 242788
住在 242760
辽宁 242753
卢 242552
天才 242467
转换 242407
村民 242229
有意 242153
意志 242025
海洋 241986
禁止 241946
的数据 241937
轩 241905
分公司 241833
宠物 241833
担任 241654
功夫 241419
编制 241415
驱 241239
机票 241120
食物 241038
脸上 240933
厨 240730
存在的 240699
停车 240498
撑 240339
遭遇 240254
的关键 240169
负担 240151
捡 240089
整合 240027
上线 239888
予 239816
高清 239720
著名 239567
的效果 239526
担保 239503
良好 239410
各地 239382
的角色 239369
党员 239356
淀 239251
灌 239177
孟 239176
反馈 239104
要注意 239075
主演 239062
预约 238990
袁 238976
琪 238862
根本就 238669
当事人 238590
商标 238569
踩 238435
王子 238390
更为 238387
之前的 238318
道歉 238213
地产 238208
芝 238206
大概是 238203
细胞 238186
天使 238159
两位 238139
设立 237998
叔叔 237964
的特点 237907
织 237855
有趣 237736
看出 237585
畏 237573
强大的 237449
大事 237391
每周 237378
斑 237347
花园 237144
漠 237122
当代 237010
的时代 236922
库存 236824
便是 236813
经历了 236657
志愿者 236209
妇女 236194
商城 236185
适用 236098
哲 236081
▁ali 236078
请求 235769
眼镜 235767
大气 235734
前途 235633
的主 235526
枝 235433
非法 235429
地上 235398
助理 235351
发生的 235094
励 235081
这些人 234912
决心 234885
似的 234662
pu 234561
热点 234516
知名 234467
牺 234456
交换 234321
贼 234202
犬 234066
灿 233936
选择了 233712
少数 233622
融合 233498
寻求 233390
考验 233372
走进 233365
葛 233344
秘密 233281
休闲 233263
糟 233261
之路 233239
的各种 233209
堡 233136
从来没有 233052
一起去 232987
岭 232845
的真实 232822
而在 232780
热闹 232712
幼儿 232651
▁windows 232635
乏 232598
顾问 232581
好奇 232014
泰国 232008
了自己的 231745
保健 231499
无人 231399
委会 231363
的规定 231326
家乡 231316
意大利 231285
舅 231115
添 231007
清新 230986
溜 230859
艰难 230770
亲自 230709
四大 230583
电子商务 230557
舒适 230366
有一次 230176
讲话 230130
福建 229928
围绕 229803
洗澡 229743
的努力 229696
保险公司 229606
传统的 229530
在外面 229350
奇迹 229315
开发商 229109
内的 229108
讽 229004
低于 228905
疾 228655
货物 228556
力度 228492
不满 228484
只好 228467
总部 228437
妞 228272
品种 228203
人文 228202
化工 228075
平静 228031
家伙 227994
步骤 227981
境界 227942
屌 227894
下雨 227807
霆 227717
霜 227710
函 227658
标题 227645
病人 227562
的教育 227552
实验室 227551
伏 227367
慈 227294
一堆 227148
到位 227045
兆 227011
这样做 227005
相当于 226982
课题 226972
加快 226891
小孩子 226846
宁波 226796
涵 226661
投票 226649
这里的 226643
有趣的 226607
的基础上 226556
雕 226548
加速 226535
渐 226515
起诉 226423
影响力 226416
的水 226336
产生的 226221
彭 226060
囊 226014
葩 225986
侯 225875
播出 225823
小学生 225808
如同 225797
人工 225715
黎 225604
她在 225560
网址 225516
发明 225475
自己在 225289
三次 225280
因为他们 225215
期限 225186
警方 225120
激励 225084
审计 225017
弊 224882
天堂 224604
团体 224598
▁the 224568
为此 224564
反思 224556
床上 224424
地下 224375
一会儿 224344
热门 224329
出差 224305
开户 224253
僵 224252
收取 224234
解决问题 224216
独特的 224177
婷 224169
债务 224020
大力 223991
全体 223968
不存在 223919
强化 223848
威胁 223792
的权利 223445
障碍 223390
的经济 223361
乐趣 223312
走出 223242
输出 223229
中华人民共和国 223083
篮 223024
的意见 223006
拥抱 222977
的责任 222973
活力 222897
嗨 222859
称为 222585
的形式 222574
鄙 222515
▁ja 222261
好朋友 222236
对手 222208
代价 222155
的消息 222153
陷入 222075
的成绩 222051
未必 221948
范围内 221837
职责 221825
发言 221748
陵 221619
让孩子 221534
由此 221504
地震 221353
脆 221231
交警 221172
远远 221154
通用 221136
琐 221129
是如何 221125
瞧 221010
提出了 220969
很多人都 220862
靓 220812
规定的 220719
轴 220684
告诉记者 220561
合肥 220551
贬 220542
太太 220485
伍 220450
精彩的 220412
识别 220303
愤 220181
担 220046
二次 220035
是怎么回事 219991
一共 219886
发现了 219842
行驶 219832
团结 219817
甜蜜 219811
肿 219727
室内 219721
漆 219667
州市 219647
已经有 219604
蕾 219555
为您 219546
机器人 219424
一眼 219406
坡 219255
笔者 219250
发放 219179
爆发 219125
痘 219104
呦 219069
劫 219027
落后 218956
笼 218947
一道 218939
声明 218824
职场 218772
可靠 218746
变更 218650
海南 218577
的概念 218451
爱国 218231
工作室 218174
新手 218142
蓝色 218025
的市场 217899
先后 217837
喔 217783
古典 217722
国庆 217578
选项 217577
活跃 217401
检察 217169
捐 217166
各大 216982
公寓 216923
嫩 216865
就已经 216815
自行车 216782
邀 216767
充满了 216747
工作中 216630
违反 216583
舟 216297
报纸 216250
央视 216146
辖 216033
手法 215759
在大 215757
挨 215739
每一天 215719
奈 215648
解读 215641
抵押 215606
▁wifi 215557
黑暗 215395
最早 215371
衡 215288
善于 215267
精英 215251
关注的 215216
第八 214885
转型 214570
满满 214473
街道 214431
坚决 214278
蒸 214267
扮演 214234
仿佛 214233
挥 214219
十大 214065
涌 213855
加大 213737
塘 213712
人体 213650
耽 213536
眼中 213505
养成 213314
侈 213265
筋 213199
形势 213074
寨 213041
感染 212985
选手 212971
出台 212901
儒 212882
樱 212762
隐藏 212674
什 212656
喽 212641
劣 212525
粤 212355
等方面 212329
寝 212310
委员 212263
栋 212260
可以看到 212151
在校 212120
信念 212109
的核心 212040
乖 212004
眼泪 212004
看似 211945
上一 211909
已经是 211886
另一方面 211866
公交车 211845
布局 211840
以往 211829
审批 211829
是一件 211637
颁 211635
租赁 211597
日本人 211567
完整的 211531
试验 211531
复杂的 211504
同步 211432
阿里 211264
安全感 211186
护士 210994
对中国 210952
旗下 210910
位于 210894
无比 210758
小小 210659
弗 210640
原始 210546
不幸 210522
成为了 210291
湘 210232
卵 210168
上市公司 210086
所有人 209999
税收 209840
防止 209729
冷静 209635
否定 209581
厘米 209529
富有 209518
化妆品 209457
也都 209424
越来越多 209286
的脸 209162
滨 209140
附近的 209117
治理 209084
现在已经 209027
普通的 208948
百姓 208905
每日 208892
运作 208819
面向 208819
女主角 208729
覆盖 208634
的相关 208574
盲 208501
的做法 208459
每次都 208414
失业 208401
各项 208373
真人 208355
连锁 208337
姥 208109
下一 208105
电器 208034
丶 207736
延续 207692
狗狗 207665
合理的 207638
囧 207585
留在 207581
梯 207535
搞定 207462
外表 207458
跳舞 207410
外汇 207379
提供的 207376
退出 207241
感冒 207154
自觉 207145
病毒 207100
哈尔滨 207084
癌 206995
活动的 206921
他们在 206912
▁mp 206797
假设 206777
的城市 206515
苑 206410
村里 206391
争议 206286
全新 206223
言论 206188
拥 206186
良心 206088
一笔 206068
肺 205972
异常 205912
球迷 205855
改进 205787
弦 205772
页面 205700
更换 205688
谨慎 205619
接收 205491
慕 205396
吃完 205352
正义 205343
辆 205316
和其他 205235
昨日 205232
旋律 205112
皇帝 205099
奥运会 205066
鉴 205035
昧 204945
哄 204940
援 204869
条例 204794
出租 204781
不断的 204771
收拾 204712
效应 204703
忍不住 204689
药品 204647
意义上 204363
灵活 204260
势力 204210
精品 204097
文化的 203623
闯 203367
否认 203361
保养 203081
要知道 202917
得太 202896
尤 202892
一番 202846
大战 202810
极端 202796
概率 202593
界面 202585
罚款 202409
趋 202395
精心 202329
酬 202256
今年的 202235
已有 201999
将在 201993
中最 201896
驰 201807
薛 201766
鹅 201765
餐饮 201722
较高 201718
之内 201679
宵 201649
转化 201573
供应 201549
霉 201479
头脑 201455
鼎 201426
试图 201420
贵州 201309
临床 201271
辨 201260
三人 201199
艺术家 201002
的部分 200944
量的 200944
大胆 200933
晗 200907
吉林 200869
一辆 200786
饮食 200719
剥 200608
佬 200493
仰 200450
不仅仅是 200375
资质 200338
陷 200298
一下子 200203
划算 200076
模特 200045
相遇 199890
审查 199834
沉默 199834
差点 199821
半夜 199815
不舒服 199809
阁 199809
而来 199763
研究所 199690
那位 199668
瓣 199622
带来了 199422
原因是 199358
手中 199340
早期 198902
微软 198879
前进 198773
窗口 198754
型的 198699
▁android 198512
但也 198358
昆明 198340
股价 198336
怡 198227
起点 198153
一阵 198056
偶然 197983
嫂 197824
解除 197735
可以通过 197677
发达 197636
淋 197606
中山 197527
卜 197247
叠 197109
慰 196974
贫困 196793
最为 196738
得出 196693
护理 196667
首先要 196600
历史上 196598
蜡 196582
危 196520
残酷 196494
人民法院 196422
还记得 196401
所得税 196317
民众 196300
戏剧 196265
大幅 196212
都需要 196203
优质 196126
娃娃 196114
是一家 196083
霞 195957
口碑 195806
熟悉的 195765
天地 195716
堪 195662
ge 195627
稚 195627
扩 195547
的家庭 195527
掏 195500
诈骗 195418
指挥 195252
函数 195221
刑事 195162
入手 195146
辜 195128
住宿 195060
有利于 195006
巴黎 194981
远离 194958
小小的 194922
造成的 194914
截止 194742
厂商 194708
入学 194576
调研 194569
游客 194548
叉 194519
北方 194466
象征 194410
结束了 194233
立刻 194197
磊 194035
构建 193976
膏 193970
地区的 193844
溢 193842
荣誉 193729
熙 193614
股份有限公司 193609
潮流 193574
食堂 193518
年来 193402
臣 193388
砍 193374
折扣 193310
的方向 193173
数据库 193112
妒 193004
的一部分 192997
打破 192906
中国人民 192883
瑟 192747
的投资 192720
多年的 192718
的压力 192655
心思 192637
的利益 192619
咸 192514
斗争 192494
绣 192436
滥 192243
排除 192127
暑 192054
签约 191995
住院 191935
的文化 191885
足够的 191833
是非 191684
结算 191620
永久 191586
烫 191536
这时候 191479
融入 191406
在我的 191389
的原则 191333
躺 191274
可以说是 191160
腐败 191150
科学家 190978
建造 190967
不小心 190869
鹰 190858
潜力 190815
外国人 190754
色的 190661
焦虑 190650
电气 190562
析 190559
蜂 190422
▁香港 190418
龟 190418
光明 190397
虹 190375
逊 190282
目录 190245
清理 190106
高潮 190104
但这 190023
刮 189937
盼 189922
般的 189917
菌 189902
年初 189896
三分 189750
衬 189568
遵守 189512
城镇 189427
成分 189307
进程 189281
经济发展 189242
奉献 189225
很多时候 189191
动手 189180
坤 189146
崔 189124
但是在 189072
誓 188955
捏 188954
再加上 188887
孩 188879
一口 188851
每一次 188808
奕 188760
荣耀 188648
释放 188602
主张 188571
得知 188555
使用的 188518
千年 188475
纠纷 188372
塑造 188295
腔 188292
一体 188279
呼吸 188236
本周 188217
浑 188133
遮 188086
脆弱 188085
支出 188076
立场 188061
希望大家 187936
大家的 187855
极其 187838
领域的 187780
负面 187613
柴 187605
梨 187604
见证 187599
款式 187546
沃 187509
秩序 187439
偷偷 187433
日的 187397
自动化 187376
华人 187340
抛弃 187298
螺 187288
浏览器 187280
坎 187126
短暂 187117
涩 187110
逃避 186926
领先 186884
安卓 186851
安心 186804
植 186801
看看吧 186746
讲解 186606
▁xx 186577
效益 186421
首页 186312
脂 186300
招标 186273
感慨 186254
共有 186228
总经理 186194
役 186119
冒险 186093
ba 186046
汇报 185969
爆炸 185957
标签 185886
妃 185858
外观 185829
森林 185785
丛 185745
青少年 185650
供应商 185645
辅 185617
俱 185590
市区 185570
履行 185556
所在地 185552
家属 185490
诵 185467
花费 185444
幽 185406
庙 185383
刻意 185332
拓展 185313
协商 185299
便利 185246
人们的 185227
公正 185198
的认识 185189
信誉 185067
了许多 185066
全力 185002
三角 184838
激发 184740
合唱 184661
的味道 184636
车型 184553
外贸 184388
咳 184314
嘘 184141
仲 184139
澳大利亚 184122
一个个 184106
盟 184025
削 183970
谭 183965
石头 183964
在了 183939
浸 183840
擅长 183835
购房 183772
亭 183665
品牌的 183565
福州 183429
引进 183326
吞 183325
江湖 183294
判决 183236
后者 183219
气息 183133
吕 183126
丸 183070
剩下的 183054
队的 182948
完成了 182859
伙伴 182766
代言 182702
将于 182644
调节 182619
透明 182575
崩溃 182554
昏 182349
冲击 182134
歇 182075
场所 182061
严肃 182006
全程 182000
上周 181994
枯 181989
承包 181987
屁股 181931
的项目 181815
央行 181724
手上 181651
高于 181650
有一定的 181612
商店 181578
着他 181519
攒 181460
普及 181445
巾 181436
不妨 181435
进展 181425
分布 181399
发动机 181391
游泳 181384
尊敬 181285
诸多 181279
第九 181255
魅 181248
仪式 181227
近年来 181225
生长 181094
西南 181062
贩 180965
养老保险 180964
独特 180930
诱 180849
潇 180716
瑜 180715
城市的 180689
卓 180618
普通人 180519
淮 180405
的不同 180281
而且还 180197
嘉宾 180193
当今 180000
邻 179991
新区 179970
挖掘 179968
主播 179941
关联 179918
捕 179909
深刻的 179876
正如 179709
忽视 179584
棍 179478
竞争力 179444
珍贵 179374
运动员 179371
获得了 179232
凌晨 179066
受欢迎 179058
亏损 179046
两者 179038
抱歉 178997
更高 178961
不安 178930
吸收 178906
科技有限公司 178877
只需要 178819
去世 178650
跑步 178647
忙碌 178595
模糊 178588
石家庄 178582
法规 178495
大道 178446
决赛 178413
家中 178397
茅 178349
御 178334
但却 178330
命令 178219
症状 178012
一夜 177888
快捷 177879
独自 177791
明显的 177790
嫉 177776
个别 177694
各方面 177651
棚 177617
捉 177596
亲密 177579
帆 177562
格局 177438
一直是 177379
很高兴 177346
毫不 177285
黄色 177202
笑着 177196
高铁 177144
种类 177140
初步 177092
千万不要 177038
翠 177007
韦 176845
高效 176753
教训 176722
驳 176705
敌人 176624
瓷 176573
辅助 176506
厨房 176463
婴 176438
外界 176349
框架 176332
痕 176329
看上去 176324
权益 176228
挫折 176204
迎来 176201
新娘 176130
严重的 176110
预防 176067
户籍 175764
二人 175706
是一名 175661
公式 175565
考虑到 175529
放到 175511
受益 175493
尺寸 175462
当我们 175457
大厦 175233
专题 175231
淘汰 175140
线下 175092
中共 175074
过度 174829
恋人 174780
线路 174752
朋 174729
妄 174719
回顾 174711
产生了 174581
有机 174494
正面 174421
被告 174325
了解到 174295
埃 174182
紧急 174140
歧视 174060
碳 174006
抖 173906
顺序 173888
详情 173843
百年 173741
心中的 173538
更改 173524
种子 173523
肾 173267
鸡蛋 173122
修复 173033
主办 172886
十足 172849
这对 172825
摆脱 172768
街上 172753
还有很多 172692
吼 172684
文献 172594
汇率 172509
万人 172470
嘎 172405
彻 172371
罩 172366
配套 172350
最多的 172328
部长 172293
民生 172275
法定 172270
机遇 172198
下列 172125
实质 172125
奶粉 171954
▁cry 171888
仓库 171850
为我们 171824
滴滴 171700
的速度 171683
南昌 171647
佣 171586
第三方 171580
三级 171489
忍受 171432
一层 171400
▁in 171382
和社会 171378
拐 171359
乡村 171292
公路 171254
攻略 171213
口味 171155
圆满 171148
一笑 171112
斌 171024
帝国 171011
更大 170993
▁ta 170917
吾 170910
▁di 170760
产权 170747
自身的 170729
后续 170508
典型的 170283
足以 170268
示范 170224
愤怒 170193
窃 170159
发生在 170086
现代化 170084
备案 170054
项目的 169976
第一天 169969
名义 169935
绘画 169876
距 169778
盲目 169772
罐 169732
这场 169689
的可能性 169630
的神 169625
辟 169623
仗 169504
艰 169489
的政治 169464
矫 169391
参数 169379
痒 169357
品味 169335
准备好 169328
起到 169301
协助 169146
专项 169125
难免 169089
树立 169056
隔壁 168936
药物 168918
广东省 168800
的身体 168795
要素 168685
帽子 168670
军队 168543
保安 168542
有许多 168508
的身份 168446
殿 168341
职务 168305
统治 168141
有力 168112
▁此外 168088
日本的 167947
自拍 167941
竞赛 167880
教会 167702
捞 167672
此前 167630
克服 167515
的管理 167503
舆论 167503
飞行 167482
总理 167357
雀 167354
若是 167319
城区 167314
唔 167287
多样 167257
▁cd 167222
恼 167172
成熟的 167162
到这里 167100
若干 167076
侃 167052
做法 167018
多元 166988
蓉 166946
提起 166899
几种 166893
衫 166840
上海市 166757
大致 166740
面膜 166734
蔽 166598
许多人 166556
较为 166493
形成了 166361
深圳市 166048
纷 166024
糟糕 165972
混乱 165935
住宅 165809
垄断 165707
十字 165556
经销商 165523
波动 165389
以此 165361
科幻 165352
人大 165347
高等 165345
主导 165322
世界上最 165314
超出 165307
美人 165226
表现出 165162
自助 165154
谜 165147
的功能 165079
多人 165000
讲座 164983
盾 164704
选举 164579
滞 164566
耳朵 164497
中秋 164425
票房 164268
的现象 164185
视为 164142
负债 164050
清洁 163970
自行 163961
伦敦 163948
帕 163920
海关 163912
折磨 163860
的成功 163841
导航 163752
耕 163713
某某 163704
辉煌 163656
尊严 163621
衡量 163599
并在 163573
约束 163559
的地位 163428
澳门 163420
损害 163400
丘 163357
名人 163317
煎 163292
解析 163207
很清楚 163204
早餐 163107
伞 163024
西班牙 163024
暗示 162887
使命 162830
批判 162793
百科 162710
脱离 162637
相应 162548
眠 162419
天然 162351
慈善 162314
蕴 162258
不受 162228
佛教 162211
宏观 162166
一支 162132
塑 162127
有名 162023
钢铁 162022
您可以 162017
关爱 161989
肆 161961
难题 161954
传承 161891
媚 161887
汁 161816
菊 161805
生理 161803
革 161789
不易 161648
替代 161629
又能 161614
媒 161604
斜 161514
更大的 161505
流浪 161475
钥匙 161466
婉 161408
走路 161343
无需 161312
套房 161277
返回 161250
说着 161249
消耗 161225
不忘 161140
主力 161120
接待 161063
挚 161009
滤 160918
婴儿 160870
季节 160842
最快 160715
因为它 160675
谓 160674
氧 160602
绒 160572
尚未 160527
学家 160512
酒吧 160488
家居 160453
这项 160436
参加了 160392
▁cm 160389
表格 160320
凝 160289
旭 160223
典型 160165
版权 160158
体重 160094
不堪 160041
代替 159923
通道 159704
戳 159615
忽然 159531
茂 159511
危害 159482
培 159419
印刷 159399
赐 159389
展览 159291
斯坦 159263
泊 159219
培训班 159126
有不少 159079
袜 159066
的眼睛 159047
发布会 159046
崇拜 159008
专注 158736
锤 158597
带领 158539
宝贵 158354
出席 158290
高层 158266
时机 158260
有必要 158258
终身 158254
解决方案 158228
浴 158183
很快就 158160
最重要的是 158056
兜 158039
件事 158032
条款 157823
董事长 157764
不符合 157695
因而 157600
督 157554
这一切 157458
不利 157450
开口 157370
的优势 157335
叨 157268
月初 157197
芭 157165
相同的 157154
赢得 157128
职能 156978
外部 156963
冤 156957
全市 156908
国内外 156821
走在 156809
全身 156558
破解 156442
按摩 156432
个多月 156297
赛季 156275
焦点 156252
带动 156224
攀 156172
就算是 156164
运营商 156159
雇 156149
累计 156119
停留 156110
禅 156023
新型 155847
戈 155846
算法 155738
暴露 155704
勃 155528
绩效 155348
航天 155248
狭 155238
渔 155058
顶级 155024
齿 155024
i 154955
流通 154864
也可 154852
绳 154817
卡通 154752
电梯 154572
配件 154535
一度 154470
葬 154451
几十年 154423
加以 154401
呈 154278
很可能 154225
寡 154170
稳定的 154068
馋 153848
凭借 153827
▁ce 153744
渊 153604
谈判 153590
最少 153570
对其 153502
的品牌 153482
桌面 153359
赋予 153354
予以 153314
匠 153223
另一种 153207
祈 153128
▁din 153108
西部 153105
出租车 153029
借款 153011
放大 152940
颂 152904
咧 152887
轻轻 152766
翁 152740
其中的 152689
营造 152670
矮 152669
法官 152650
不断地 152570
留学生 152522
憋 152482
指南 152463
密切 152457
清醒 152451
蛋白 152440
大海 152432
晃 152415
辑 152333
最高的 152289
激烈 152241
牛奶 152184
生活方式 152169
的通知 152115
组织的 151867
苏联 151782
参观 151780
以内 151758
大自然 151745
之旅 151703
塑料 151576
跑到 151573
仲裁 151565
谈到 151483
未知 151454
爱好者 151454
廷 151444
法人 151292
打扮 151216
技术的 151102
远程 151027
得以 151013
大数据 150956
集成 150934
精美 150888
也被 150883
沧 150840
致力于 150813
违约 150808
洗衣 150661
拯救 150383
黑龙江 150333
纪律 150296
所有人都 150264
周岁 150169
队员 150126
▁ab 150124
各国 150078
常规 150011
帽 149997
多家 149899
变动 149824
勋 149805
平面 149782
沾 149757
民事 149745
的重要性 149655
之上 149626
恰恰 149587
舔 149585
啤酒 149567
担当 149567
部署 149540
离不开 149521
拍卖 149519
认识到 149518
岂 149397
塌 149382
债券 149366
消除 149305
注意力 149287
一丝 149274
西北 149203
剖 149188
缺陷 149188
巷 149183
取决于 149063
日起 149061
嘿 149033
袖 148855
生成 148656
彩票 148559
下半年 148531
一期 148309
控股 148258
局面 148209
於 148158
概括 148039
著名的 147991
小型 147974
指责 147900
拦 147767
宰 147713
友好 147657
有利 147578
抒 147515
一起来 147513
找出 147487
芦 147341
醋 147259
实现了 147230
的应用 147209
葱 147169
携 147131
演奏 147117
吸引力 147098
不仅是 147047
弥 147040
封面 147027
最新的 146911
脑袋 146886
队友 146827
在日本 146776
nh 146765
所以在 146630
比起 146477
▁mm 146446
庆祝 146311
兰州 146301
联合国 146297
粮食 146198
吨 146135
研究院 146039
回收 145815
彼 145807
来自于 145796
借鉴 145755
男主角 145737
各级 145702
深夜 145683
魄 145545
存储 145514
频繁 145486
咖 145433
身体健康 145399
睡眠 145366
违规 145278
高峰 145250
的风险 145220
歌唱 145179
手工 145093
将其 145056
外出 145015
视野 144922
一副 144874
通行 144852
理想的 144788
魔法 144777
队长 144736
夫人 144592
携带 144584
弥补 144572
拘 144505
泡沫 144449
本土 144352
出行 144331
名为 144289
补助 144120
保守 144112
西藏 144062
总裁 144043
不限 143971
门槛 143961
谷歌 143872
发起 143818
惊讶 143804
守护 143799
机动车 143731
拼命 143684
涉及到 143656
郊 143605
走上 143561
共产党 143317
科普 143290
日益 143259
阿里巴巴 143195
va 143164
编程 143130
这一次 142994
步行 142989
彩虹 142961
侵 142829
阶 142779
精准 142765
兹 142685
储备 142647
公斤 142639
气候 142587
氓 142582
莹 142564
时间内 142561
隶 142536
获奖 142493
笑容 142470
瞒 142363
夫妇 142302
开设 142279
向前 142229
瑶 142185
外交 142116
聪 142101
不明 142064
身心 142025
垂 142015
终端 141968
忆 141963
主人公 141955
欧元 141920
出身 141902
橙 141857
此刻 141803
咒 141778
意愿 141738
崩 141723
非洲 141683
一脸 141667
受理 141473
创始人 141471
彦 141467
衔 141451
一身 141445
可谓 141432
懵 141242
畜 141119
前往 141084
乃至 141051
暨 141049
匹 141043
早晨 141019
全新的 140885
做的事情 140875
愉 140822
的安全 140818
萍 140715
假日 140655
并未 140639
沦 140616
伴侣 140532
一根 140412
尽可能 140229
诠 140204
惩罚 140195
庞 140188
山东省 140139
著作 140098
模块 140066
自豪 140001
v 139993
即使是 139988
新兴 139952
许可证 139943
唇 139880
公司在 139805
珠海 139736
招呼 139726
字母 139719
总监 139711
箭 139651
▁地址 139619
特性 139614
倦 139612
▁tv 139516
碟 139476
长江 139474
陌 139447
顽 139422
人民政府 139412
总局 139379
钉 139368
址 139356
的政策 139349
屡 139302
战士 139281
细致 139256
越南 139256
心脏 139221
绝大多数 139214
了起来 139127
分辨 139118
工作经验 139094
蔬菜 138965
伽 138958
政府的 138951
局限 138782
希腊 138768
客户的 138594
祭 138566
▁pc 138524
▁cs 138353
但如果 138290
常见的 138268
石化 138249
谈话 138158
幺 138155
▁ca 138118
节约 138106
故障 138040
裕 138024
罕 137992
佑 137928
重量 137853
院长 137828
近几年 137817
藤 137813
肌肉 137715
披 137707
的最大 137556
绩 137554
一股 137487
的秘密 137447
露出 137421
行李 137341
博物馆 137322
肚 137316
阶层 137303
关键词 137290
程度上 137279
无效 137154
书面 136972
巅 136888
撰 136864
骑士 136779
诈 136737
历程 136732
验收 136694
知情 136672
投标 136657
唱片 136525
一座 136505
其余 136490
撩 136334
厢 136309
所属 136253
猜测 136252
测量 136150
钩 136150
颠 136110
企业家 136079
而非 136025
不超过 135946
嗓 135803
览 135794
南海 135726
不容 135692
伐 135639
一般人 135603
如有 135601
丈 135561
甚至是 135546
▁vip 135463
占据 135419
东京 135375
烛 135365
界的 135353
央 135230
大声 135218
医师 135216
恳 135129
困惑 135115
日下午 135028
混合 134989
工作者 134913
上演 134807
租金 134781
饶 134765
刹 134722
伸 134715
离开了 134697
稻 134635
重组 134588
第一时间 134564
絮 134505
鼻子 134476
寓 134443
监测 134433
迎接 134422
▁ty 134415
亩 134401
翅 134396
用人单位 134391
已经成为 134377
潜在 134314
浆 134240
妍 134237
睿 134227
的使用 134135
惧 134131
一波 134071
阐述 134066
鲜明 134050
匪 133980
越来越多的 133965
宪法 133882
关怀 133802
屠 133731
虚假 133634
落地 133591
珊 133522
我公司 133518
大规模 133424
每人 133390
丧失 133258
介入 133234
引领 133200
市委 133173
穿上 133093
蹭 133090
穆 133089
如果您 133070
困扰 133052
可以看出 133040
滩 133019
零食 133012
节能 132912
试点 132898
正当 132871
冥 132813
特朗普 132783
严谨 132777
一直以来 132764
江苏省 132731
佐 132710
征收 132680
泣 132667
师生 132623
陆续 132617
杠 132581
会产生 132578
冰箱 132501
竞技 132498
工会 132386
领导人 132348
砂 132318
介绍了 132202
在香港 132197
嗒 132193
作战 132152
甘肃 132124
特定 131968
此外 131955
频率 131929
斯特 131902
消化 131893
文本 131864
膨 131845
片段 131835
芽 131798
竭 131753
布置 131699
挑选 131698
热烈 131652
奖学金 131637
毫米 131631
溶 131627
发布的 131523
pad 131399
崛起 131322
传达 131312
支部 131273
信息化 131265
台上 131236
奇妙 131230
取得了 131168
法制 131153
能力和 131008
省级 130987
在新 130984
巢 130984
必定 130973
小伙伴们 130859
中国经济 130844
证实 130807
立法 130790
八卦 130786
扮 130708
跟踪 130665
特殊的 130662
芯片 130633
切实 130630
所得 130474
焊 130473
诀 130464
贞 130422
人工智能 130394
活动中 130394
菇 130329
驴 130316
▁big 130264
借助 130257
大批 130248
雯 130205
种植 130117
卫星 129997
扒 129924
入住 129776
浏览 129727
遇上 129639
结束后 129552
也可能 129486
附加 129473
市长 129433
中华民族 129367
爵 129355
嘱 129321
澜 129317
拓 129202
幂 129178
唯有 129169
颈 129077
万美元 128996
睁 128995
评选 128977
啧 128968
本月 128950
究竟是 128878
为了让 128862
▁of 128836
美联储 128795
忠诚 128702
准则 128631
抽象 128620
克斯 128588
改革开放 128521
灾难 128513
地板 128509
内蒙古 128498
提出的 128475
老年 128435
绍 128419
酿 128368
说完 128276
骏 128175
资深 128140
心得 127984
期刊 127869
窄 127820
碍 127797
斩 127776
饮料 127773
豪华 127726
涉嫌 127629
架构 127626
踪 127573
盒子 127465
全省 127453
敷 127320
开拓 127304
例外 127265
跨界 127147
园区 127145
心目中 127107
和发展 127099
困境 127092
排行榜 127071
神的 126981
意向 126943
行程 126915
燥 126884
绪 126824
老年人 126817
首都 126789
底下 126757
pr 126476
遵循 126472
赎 126226
诊断 126219
勇士 126203
电动车 126164
鹤 126137
不已 126031
腺 125991
初期 125900
铝 125897
挽 125875
担忧 125814
调控 125749
未成年 125719
更容易 125617
亮相 125531
交代 125511
老鼠 125460
自家 125444
局长 125400
新建 125300
路径 125284
措 125282
扫描 125251
多年来 125119
▁mac 125051
一趟 124956
靠近 124937
靖 124902
经费 124871
在全国 124855
景点 124831
制造业 124801
霾 124739
天然气 124663
佛山 124658
谈论 124591
集合 124442
堕 124366
陀 124337
浙 124279
配送 124248
遭到 124247
传统文化 124230
r 124194
好莱坞 124164
有望 124125
想像 124089
最具 124081
乡镇 124079
的表情 123973
穴 123968
目的是 123967
世界杯 123944
等人 123933
基础上 123821
以便 123769
毫 123721
有权 123634
j 123553
大国 123506
缚 123498
筑 123446
boy 123333
隐私 123251
筛 123133
健全 123098
辽 123060
纤 123000
先进的 122982
潭 122922
匹配 122919
扩展 122892
场上 122826
该公司 122753
医疗保险 122736
注意到 122732
峡 122690
的比赛 122662
体力 122640
嘟 122597
枫 122572
作风 122544
枕 122543
亚马逊 122485
港澳 122441
芙 122440
一杯 122429
来源于 122427
pk 122345
有关部门 122322
交易所 122288
僧 122100
引入 122084
卓越 122074
变革 122069
无疑 121823
剩下 121787
发电 121710
乘客 121678
阻止 121678
茨 121660
近代 121638
此事 121611
简称 121566
澳 121547
恭 121544
清洗 121536
女王 121525
含有 121523
曰 121491
美金 121439
桌子 121408
皂 121324
琼 121284
图像 121275
▁to 121199
趣味 121182
封闭 121082
日程 121036
bb 120973
罗马 120923
荆 120860
压缩 120843
倩 120831
起步 120791
蹲 120656
沸 120616
▁you 120586
发育 120517
有助于 120471
此类 120449
办学 120432
附件 120430
洽 120428
挫 120367
侮 120356
常见 120321
遗产 120316
城乡 120298
体现了 120292
达到了 120282
蚁 120226
短短 120195
角落 120176
允 120135
携手 120090
新西兰 120071
宗旨 120025
双手 119978
只需 119975
对抗 119959
地域 119936
梗 119871
甄 119849
拼搏 119832
加息 119822
许可 119816
纽 119759
法庭 119722
中国共产党 119716
做成 119708
用途 119708
极为 119706
▁km 119700
增加了 119687
中美 119657
按钮 119615
高达 119510
震惊 119507
颠覆 119457
之家 119427
供给 119405
拾 119403
原料 119374
享有 119372
户外 119255
陋 119224
原标题 119175
桐 119165
市政府 119118
艰苦 119116
钓鱼 119022
知识产权 119016
匀 119005
姬 118898
不只是 118891
枣 118854
极大 118841
▁us 118837
旅途 118825
康复 118823
就像是 118763
不再是 118594
夜晚 118563
欧盟 118536
老虎 118520
创业者 118516
楠 118511
曝 118469
生涯 118382
空白 118332
签署 118267
纪委 118245
必要的 118243
子公司 118172
飙 118124
法律法规 118044
但她 118037
硅 117997
审判 117987
秘书 117985
乐园 117947
分割 117923
▁mu 117874
淑 117866
搅 117865
旅行社 117812
空中 117794
国防 117643
耿 117642
会长 117623
我校 117565
这件事情 117529
战胜 117528
缓解 117520
开发区 117504
喜好 117484
鞭 117438
小女孩 117413
制品 117387
已被 117283
阀 117227
粥 117180
侵犯 117160
仪器 117135
大家一起 117125
都非常 117079
金牌 117047
▁vr 117031
五大 116996
贯彻 116937
已经开始 116919
战场 116893
日上午 116886
辐射 116814
肢 116807
为大家 116711
信赖 116628
勘 116609
刷卡 116592
障 116579
谊 116570
下手 116542
出演 116530
早在 116506
边缘 116463
笛 116462
唠 116404
气象 116348
日在 116278
祷 116132
壶 116021
修理 116014
未能 116012
应急 116011
显著 115954
黛 115950
坪 115923
之道 115903
泵 115776
搬家 115661
深化 115655
暧 115505
外资 115502
一流 115456
介绍一下 115447
挣扎 115439
髓 115415
悄悄 115364
号线 115309
贿 115229
慎 115143
扎实 115059
强度 115046
浙江省 115046
一个新的 114985
平板 114971
巫 114901
彬 114898
咩 114787
进而 114685
路口 114681
os 114663
饥 114575
众人 114571
一向 114371
长远 114364
嚣 114353
馨 114334
非常重要 114304
叮 114276
法治 114197
下滑 114195
也将 114182
繁荣 114180
史上 114173
廊 114165
指示 114136
监狱 114055
扶贫 113996
署 113938
健康的 113935
徽 113920
扣除 113900
冶 113857
纳入 113801
之地 113749
影像 113658
剔 113621
可能性 113618
坠 113613
地面 113604
q 113591
火箭 113560
豹 113546
是一位 113526
熟练 113506
沉重 113499
国土 113465
坟 113382
披露 113334
一件事情 113330
在本 113281
昭 113258
遵 113189
鸦 113180
琢 113153
含量 113084
聆 113016
裔 112989
皱 112948
侵权 112941
留下了 112923
追逐 112906
▁haha 112755
为例 112731
保密 112712
河南省 112711
涨幅 112711
发布了 112690
宪 112673
受到了 112650
任意 112597
更好地 112535
对应的 112472
最主要的 112466
产量 112408
组建 112341
领袖 112287
线索 112246
芯 112234
兮 112172
网民 112057
社会保障 111960
哑 111958
马克思主义 111930
不禁 111907
环球 111892
偏偏 111771
乾 111752
奥巴马 111749
也非常 111733
景区 111691
联邦 111666
知名度 111627
取代 111579
煤炭 111509
五星 111421
蚊 111394
渴 111387
新增 111363
遗传 111325
参赛 111227
w 111198
扁 111183
复合 111106
实际情况 111046
多彩 111031
微微 111012
渺 111001
入境 110992
人均 110957
豁 110943
额外 110938
总额 110914
水利 110902
副主任 110896
广州市 110886
被称为 110828
▁ex 110799
影院 110753
科学技术 110608
留意 110598
评审 110496
信贷 110485
事先 110479
建材 110421
回到家 110403
高科技 110325
人力 110265
水晶 110250
学生们 110174
前来 110152
阵容 110111
深受 110103
模样 110077
巴西 109983
橱 109981
每年都 109911
蛙 109895
延长 109868
会导致 109815
代理商 109814
丝毫 109790
揣 109757
事宜 109731
充足 109729
▁excel 109708
的最佳 109638
侨 109612
在未来 109601
媳 109597
殊 109570
高低 109563
公安机关 109547
党委 109544
截至 109503
血液 109503
建立了 109487
告白 109378
的指导 109341
这些问题 109337
饺 109327
菩 109320
▁style 109315
bang 109314
利亚 109283
▁boss 109277
合成 109209
字幕 109209
扶持 109207
更能 109201
我们将 109150
相结合 109086
恶劣 109074
扛 109068
转向 109018
询 108980
小吃 108930
大使 108911
一行 108862
娟 108808
旅程 108707
屑 108702
挽回 108617
失误 108597
赌博 108548
大地 108537
适用于 108395
失眠 108314
追究 108293
新品 108217
乞 108195
习近平 108193
腕 108155
一枚 108147
狸 108097
包裹 108094
复兴 108038
容量 108026
先锋 108011
安全的 107988
紧密 107972
面临的 107943
玉米 107902
病情 107882
警告 107848
蹦 107818
葡萄 107802
匆匆 107755
养殖 107734
列表 107715
管理者 107568
▁google 107559
媛 107513
名叫 107483
写真 107372
沃尔 107289
分裂 107259
臂 107226
培训机构 107211
脚步 107206
呼吁 107144
歹 107097
可用 107082
中小学 107067
有限责任公司 107056
的商品 107056
有信心 107021
各种各样的 106969
▁www 106939
茜 106856
玺 106839
日晚 106826
再度 106710
色情 106656
卿 106633
出色 106607
蜗 106536
趴 106504
惰 106463
的到来 106334
有很大的 106236
憬 106234
核实 106191
灰色 106156
趟 106148
爪 106091
拌 106089
也曾 106070
杏 106009
素材 106009
漏洞 106006
入口 105959
的比例 105911
扩张 105797
二胎 105793
憧 105777
用户的 105775
膀 105771
治安 105696
合作的 105681
躺在 105594
荷兰 105568
劳动力 105513
据悉 105480
睹 105440
生效 105405
素养 105354
悍 105293
水泥 105292
覆 105285
疼痛 105273
就需要 105220
监察 105157
湛 105131
资助 105120
一同 104996
吟 104977
内外 104972
麟 104912
自治区 104896
嘴巴 104879
仕 104868
na 104846
哩 104841
盯着 104701
已成为 104687
在他的 104515
纺织 104475
惟 104445
吱 104429
缸 104371
安置 104324
下一步 104127
最基本的 104086
韧 104086
富裕 103911
苛 103907
极大的 103898
交通事故 103891
平和 103842
疫 103815
很方便 103739
肇 103722
掘 103720
▁de 103694
两名 103665
颁发 103582
吸引了 103522
口袋 103500
响应 103459
管道 103442
分析师 103376
境外 103368
节省 103312
创造了 103252
救助 103247
傅 103245
不少人 103199
膝 103177
公布的 103040
马克思 103022
咽 102997
信息技术 102981
枉 102873
店家 102872
遂 102812
乖乖 102730
毯 102711
店面 102664
拿下 102644
牙齿 102620
噩 102606
更重要的是 102606
范畴 102570
参照 102564
匿 102546
巧克力 102537
蜀 102455
智能手机 102439
干扰 102393
豆腐 102279
别墅 102250
筝 102220
三位 102215
喉 102202
既有 102200
部位 102078
申请人 102037
乘坐 101991
桩 101958
方针 101937
创办 101919
导向 101888
特色的 101834
疚 101814
蝶 101739
确立 101729
延伸 101713
棵 101712
探究 101694
整整 101608
清华大学 101530
平方 101503
防范 101476
磕 101448
富士 101442
转身 101381
犀 101236
成品 101222
安全生产 101210
分工 101198
蝴蝶 101145
绽 101138
▁cz 101087
戒指 101045
刃 101000
估值 100939
孕妇 100890
河北省 100844
交友 100772
两岸 100766
坝 100724
培育 100562
提倡 100523
遭受 100441
基础设施 100433
橡 100402
噶 100373
修正 100354
曾在 100342
阻碍 100212
突发 100108
彰 100018
牛肉 99963
株 99909
文物 99890
巨头 99812
疑惑 99666
诡 99665
透过 99618
一回 99562
推出的 99538
我市 99510
插入 99507
裁判 99481
与中国 99457
馈 99399
敞 99357
▁近日 99355
弈 99348
惑 99348
在今年 99295
聚集 99285
售后服务 99227
一律 99188
他认为 99185
帧 99039
共识 99014
中小企业 98998
络 98970
▁dj 98939
▁me 98934
▁ad 98916
揉 98851
饲 98821
锈 98801
发达国家 98755
联赛 98735
分成 98592
残疾人 98571
搁 98549
痕迹 98518
通报 98488
高速公路 98482
情报 98475
十多年 98402
时报 98391
厉 98386
掌控 98349
冬季 98345
马来西亚 98339
的战略 98318
追加 98273
同胞 98147
衍 98141
国民党 98078
沂 98040
搏 98014
预订 97941
庚 97803
搭建 97768
愣 97766
循 97740
战术 97723
汕 97645
一体化 97588
产能 97476
仅有 97360
减轻 97336
蚂 97282
受害者 97192
坷 97168
进入了 97165
座位 97142
▁xxx 97115
的食物 97102
邵 97101
薪酬 97098
证监会 97008
翘 96995
称之为 96950
钞 96840
懦 96836
▁top 96819
轨道 96810
疫苗 96806
提高了 96736
进取 96736
▁so 96683
巩固 96623
▁em 96594
▁lol 96545
期盼 96509
夏季 96479
抠 96457
针对性 96388
两国 96380
四季 96255
靡 96253
蒜 96245
道路上 96240
浇 96223
反省 96207
吉祥 96173
每一位 96048
管理局 95967
敛 95949
场比赛 95942
之际 95934
严厉 95840
种族 95838
高等教育 95838
尹 95761
援助 95730
瑞士 95680
幅度 95657
▁my 95604
合作伙伴 95595
最便宜 95592
四川省 95581
铸 95570
竖 95510
cf 95459
食用 95429
寿命 95407
终止 95304
菱 95230
反抗 95149
沥 95134
在过去 95119
情形 95086
漓 95040
椅 95020
成年人 95015
道具 94981
常态 94964
所需 94964
的理念 94952
拘留 94929
溺 94917
起源 94752
er 94742
整治 94543
以免 94441
一幅 94337
磅 94332
彤 94231
摘要 94220
整改 94205
燃烧 94196
身后 94185
业界 94119
隐患 94117
摧 94075
尼亚 94067
上半年 94058
▁vs 94001
倡导 93994
稽 93989
蚕 93956
管理人员 93908
梦见 93906
为中心 93897
轿车 93896
审理 93889
进攻 93881
滋味 93852
推行 93840
农产品 93773
创立 93708
度假 93699
澡 93640
下方 93587
境内 93573
碑 93537
怜 93449
芒果 93447
荣获 93396
一口气 93252
标准化 93244
沫 93206
弘 93075
问道 93063
的合作 93049
做出了 93047
惩 93037
放入 93029
俭 93000
聚焦 92976
金融机构 92903
据了解 92890
脂肪 92861
分散 92837
亨 92828
制约 92815
立足 92755
竞争对手 92741
鸽 92716
电动 92689
办事处 92556
的高度 92513
帘 92502
修行 92486
全方位 92460
售价 92440
多名 92399
责任感 92333
打出 92331
屯 92329
揽 92288
公立 92255
▁am 92250
意味 92242
牡 92240
脖子 92208
不懈 92201
氧化 92164
薪水 92148
省份 92105
年以来 92053
伴随着 92018
崎 91982
无疑是 91939
渗透 91897
已是 91887
凝聚 91884
执政 91774
履 91708
全年 91670
典礼 91670
奔驰 91586
啃 91567
▁be 91564
恒大 91548
弓 91486
景观 91413
夷 91325
电网 91310
香水 91265
附属 91237
散步 91230
▁love 91198
咏 91186
薯 91169
谨 91116
娱 91098
慎重 91085
更快 91061
立案 91046
ht 90961
授予 90955
停下 90949
形状 90938
技术和 90922
喘 90917
董事会 90910
癌症 90879
冈 90822
可在 90782
▁is 90743
列车 90702
熏 90663
再一次 90517
命名 90486
太空 90481
ppt 90455
太平洋 90360
醇 90334
国家级 90314
起伏 90253
羁 90239
有益 90169
赛事 90155
士兵 90134
防守 90119
詹姆斯 90065
▁baby 90063
落在 90016
钙 89992
噗 89969
第一位 89828
回避 89786
苟 89755
较低 89751
步伐 89737
建成 89700
绊 89678
跨越 89674
海军 89562
更高的 89536
首席 89527
科比 89507
璐 89467
中期 89459
邓小平 89450
敦 89447
损坏 89416
中毒 89384
数据显示 89299
研制 89232
杠杆 89167
促使 89126
潍 89118
效力 89017
主管部门 88978
ta 88943
暂停 88871
支配 88819
经贸 88781
将成为 88775
捐款 88767
猥 88754
丙 88675
ma 88659
域名 88621
烊 88607
邱 88548
渝 88516
顶尖 88500
成立于 88399
深厚 88379
加州 88246
出品 88163
协作 88144
救援 88094
持久 88071
装置 87959
奶茶 87885
一言 87858
上方 87817
口腔 87805
上司 87756
联络 87756
地方政府 87748
功效 87745
北美 87694
就此 87682
基金会 87636
完善的 87618
依照 87612
管理和 87510
国际化 87407
蒙古 87388
首发 87388
处置 87384
哈佛 87332
揍 87280
技术人员 87241
▁hi 87229
暇 87202
焰 87193
了下来 87143
展会 87084
提及 87077
净化 87048
侄 87046
经济增长 87023
有任何 86998
抑制 86978
蔚 86962
公示 86953
橘 86905
出色的 86881
铅 86869
凄 86862
栈 86814
全面的 86802
惫 86788
激光 86773
旨在 86680
次会议 86646
琦 86590
美味 86562
遣 86484
格外 86409
研究中心 86391
警惕 86387
全国各地 86384
▁pro 86333
捣 86332
妓 86284
相关部门 86222
倪 86208
发动 86208
途中 86202
进出口 86123
心地 86054
▁er 86024
芜 85995
平方米 85942
随之 85880
基督教 85857
闽 85826
个性化 85822
游戏中 85814
合一 85767
奖项 85758
两会 85698
旅客 85655
防御 85619
投放 85596
防火 85516
等问题 85505
缆 85413
恍 85396
顿时 85269
当日 85248
数十 85246
理事 85211
阜 85205
窦 85180
怼 85172
txt 85085
年开始 85062
瘫 85048
维生素 85006
新能源 84913
草原 84896
外套 84879
需要注意 84865
厦 84861
影音 84847
面板 84831
挠 84783
涵盖 84761
在内的 84728
所做的 84726
湖北省 84726
非凡 84697
彪 84651
大家都知道 84637
葫 84570
绅 84549
糕 84523
紧紧 84479
体内 84428
功率 84395
柄 84230
▁class 84160
嵌 84144
梵 84098
詹 84078
小镇 84050
粪 84016
整形 83978
椒 83973
俏 83965
推出了 83924
喧 83886
传输 83880
诺贝尔 83808
改正 83795
嘞 83619
董事 83583
昔 83537
的前提下 83537
颤 83493
周刊 83482
钦 83391
萎 83338
助力 83261
集中在 83153
俞 83147
发射 83086
▁ai 83070
咕 83056
提名 83045
睐 82983
预警 82964
除外 82959
谐 82891
市政 82858
欣慰 82781
化解 82749
括 82725
本公司 82725
好奇心 82711
背景下 82710
衍生 82681
澎 82653
▁hr 82638
巧妙 82616
挪 82600
抵抗 82597
▁lin 82562
阿尔 82504
疆 82503
哗 82487
玮 82464
零件 82456
资本市场 82418
自律 82399
鲍 82344
指甲 82343
钓 82224
均衡 82195
被迫 82194
血管 82185
韬 82090
峰会 82066
殷 82020
▁university 82009
爵士 81981
诛 81919
淳 81897
有序 81888
一流的 81874
优良 81873
采集 81860
梳理 81858
用地 81822
舱 81809
校友 81770
人民群众 81768
gt 81767
与此同时 81736
用水 81693
鉴于 81686
隙 81674
▁word 81598
监督管理 81598
毒品 81585
市值 81558
酵 81526
▁cad 81490
固然 81481
曦 81477
恤 81462
登上 81365
▁by 81352
并将 81324
垮 81321
豫 81270
防水 81245
依托 81209
交叉 81188
原材料 81181
h 81115
蒲 81069
湃 80999
窍 80995
son 80970
▁bug 80883
决议 80854
分解 80826
暮 80823
嵩 80819
胞 80792
再生 80742
gb 80733
昊 80709
多元化 80688
谍 80609
仆 80521
私募 80517
引起了 80468
退役 80434
五金 80425
山市 80398
统筹 80269
拉斯 80264
no 80205
产业链 80100
鞍 80087
食品安全 80065
纬 80047
桌上 80043
驭 80033
有价值的 79984
排放 79931
拿起 79920
未经 79899
产品质量 79840
凳 79839
成效 79785
ps 79750
窗户 79656
派遣 79652
腥 79621
均可 79593
▁今 79552
捆 79539
霖 79492
交付 79433
第三次 79419
殴 79405
指引 79401
禽 79396
糙 79385
▁live 79363
碰撞 79353
出血 79346
还将 79287
招募 79194
保管 79167
各方 79163
恕 79157
目光 79148
贝尔 79142
而成 79130
沛 79074
肿瘤 79061
▁pp 79054
交互 79051
主权 79049
安徽省 79018
菲律宾 78969
谬 78967
▁bo 78953
纤维 78943
国王 78895
激烈的 78733
逾 78648
椎 78643
任职 78634
并对 78602
防治 78582
在全球 78495
仑 78489
枚 78471
an 78434
增添 78395
得分 78394
▁one 78376
多项 78198
陷阱 78153
本报 78084
感想 78055
▁or 78012
葵 77953
缓慢 77948
寥 77908
日至 77868
特定的 77828
省委 77827
ql 77811
琅 77768
服务业 77763
盛大 77734
清除 77732
袍 77700
率先 77691
簿 77651
贡 77637
的一项 77610
县级 77607
拉开 77583
艹 77583
巨星 77567
大半 77556
国籍 77552
湖南省 77391
增速 77378
器材 77363
目的地 77338
麽 77316
渲 77286
修订 77268
首要 77183
荧 77170
专注于 77159
总量 77108
收益率 77095
夺冠 77059
领导干部 77059
绯 77049
研究员 77012
私立 76996
嫣 76894
雁 76838
使其 76805
怪物 76803
所示 76770
撇 76753
嗦 76733
厘 76690
珍珠 76667
悉 76611
管制 76556
邹 76514
ns 76483
列出 76463
气温 76443
狠狠 76429
嫖 76409
脊 76399
蚀 76323
旨 76307
陶瓷 76249
疤 76242
柠 76238
迪士尼 76227
觅 76217
譬 76200
优质的 76198
朽 76172
吃到 76147
瞳 76146
彩色 76074
导弹 76068
僻 76048
旬 76047
弟子 76034
囤 75995
直至 75992
▁suv 75813
分泌 75807
密集 75795
肩膀 75775
安全性 75774
安定 75769
翰 75720
年以上 75702
不便 75618
以下是 75603
局部 75603
怂 75601
仍是 75589
劈 75522
檬 75477
bc 75353
配备 75286
冀 75271
纺 75230
榄 75226
渤 75207
姗 75206
水中 75181
全球化 75176
除此之外 75138
耶稣 75117
死刑 75072
廖 75031
孽 74987
光芒 74949
眷 74947
印象深刻 74907
部落 74841
球场 74746
这座 74703
魔鬼 74697
伺 74528
婊 74522
供应链 74469
麦克 74462
销售额 74402
武装 74401
▁mba 74348
碎片 74307
太阳能 74251
栗 74237
星球 74220
▁and 74168
哨 74148
一定程度 74146
分歧 74109
葡萄酒 74079
挂牌 73991
壹 73977
伊朗 73963
淹 73935
颓 73928
辣椒 73899
▁na 73890
史上最 73881
闸 73879
的目光 73875
媒介 73861
桥梁 73858
仍在 73836
吖 73833
限量 73753
芸 73720
赣 73699
重建 73637
举措 73632
煞 73602
微妙 73590
侍 73575
掐 73515
公布了 73486
▁la 73469
土壤 73451
煽 73362
的最新 73359
青海 73306
协同 73296
pa 73240
蓬 73210
u 73189
指令 73169
旷 73162
筹备 73157
缀 73124
一幕 73028
新高 73026
崖 72995
徊 72994
mb 72992
焕 72983
讳 72967
管理工作 72963
新一代 72961
平稳 72947
市公安局 72769
新华社 72715
灶 72709
上世纪 72691
拢 72685
为主题 72684
便捷 72665
拙 72519
徘 72510
日常生活 72335
窥 72263
发改委 72231
只剩下 72228
ny 72140
襄 72131
泳 72104
情境 72101
捐赠 72100
茹 72092
睦 72080
栽 72060
▁facebook 72054
列入 72046
下一代 72042
缔 72032
获悉 71980
二维码 71936
k 71887
少数民族 71878
市面上 71857
慨 71844
约翰 71833
在接受 71777
的重大 71758
短片 71707
的健康 71703
海上 71684
尸体 71667
▁web 71640
快感 71618
碌 71608
春季 71584
督促 71513
抉 71488
榴 71413
绚 71395
灾害 71375
船舶 71344
器官 71339
必需 71276
靴 71246
▁av 71210
前方 71208
翡 71157
每位 71066
烹 71037
玛丽 71007
婪 71005
粑 70999
米兰 70940
玩法 70817
右手 70814
涡 70795
前沿 70772
投稿 70719
高温 70701
财政部 70697
逍 70689
失踪 70683
癖 70652
瞬 70617
韶 70590
午餐 70587
拽 70573
自治 70572
馒 70460
瞩 70458
咔 70386
月中旬 70385
▁led 70374
▁note 70352
官方网站 70270
荐 70196
流失 70031
硫 70023
po 69931
谴 69898
注入 69877
逾期 69836
职业生涯 69809
▁wp 69752
馅 69697
垂直 69639
巨人 69638
嗷 69635
上限 69587
炭 69581
模具 69517
正直 69513
是一款 69387
亚太 69377
杭 69332
行使 69325
ux 69271
不含 69228
垒 69207
黏 69192
▁le 69123
▁hell 69099
奠 69012
邢 69009
开幕 68924
金色 68921
成立了 68909
樊 68895
院士 68861
政协 68719
设有 68689
福建省 68677
嚷 68664
橄 68653
环境保护 68650
有害 68609
揪 68532
首批 68486
瞅 68464
娅 68449
招待 68442
密度 68434
低下 68419
跨国 68356
怯 68310
中国企业 68245
僚 68199
妨 68137
明日 68068
温泉 68028
搓 68000
乒乓球 67971
媒体报道 67971
关税 67910
英镑 67831
庞大的 67829
晚餐 67826
诫 67815
弘扬 67771
激素 67767
碱 67735
噪音 67695
新技术 67611
面貌 67504
▁as 67491
东南亚 67473
剁 67465
管理办法 67460
平台上 67459
ing 67457
举行的 67430
先行 67417
知名的 67386
腊 67381
务实 67328
榨 67299
▁man 67297
长达 67226
阐 67222
哔 67198
沙漠 67195
蜕 67178
呕 67150
蜘蛛 67146
▁apple 67085
将继续 67037
珑 67008
景色 66988
可以使用 66978
配偶 66954
互助 66937
新时代 66898
掠 66895
接送 66887
掰 66865
矣 66785
瞻 66759
尼克 66735
各部门 66662
迫切 66636
▁we 66599
萱 66576
斋 66572
或其他 66568
服用 66567
什麽 66469
的身影 66453
ib 66429
富豪 66400
▁iso 66397
蜂蜜 66384
本校 66323
▁for 66289
比特币 66285
澈 66241
宁夏 66222
html 66218
▁logo 66182
婶 66177
瑞典 66142
态势 66111
俯 66095
婿 66013
沮 65912
眨 65851
邂 65816
捂 65791
氢 65770
筷 65719
充分发挥 65681
啰 65607
逅 65591
常委 65567
▁ac 65534
▁pe 65399
倘 65384
台北 65360
年末 65330
为核心 65288
蔑 65284
迭 65246
喇叭 65243
肋 65200
▁go 65143
▁cos 65064
中东 65006
仍有 64977
祛 64972
代表性 64951
当局 64926
罗斯 64919
干燥 64880
星期六 64849
最棒的 64844
摩擦 64830
皇家 64824
叼 64817
凸 64802
枢 64791
秋季 64779
擅 64757
高尔夫 64713
科学研究 64712
▁net 64691
煲 64672
一步一步 64670
限定 64643
郡 64640
氨 64560
建立起 64538
澄 64509
杉 64493
ic 64462
增多 64459
滔 64459
嚼 64456
稳定性 64436
淄 64400
毫无疑问 64388
泄露 64331
丐 64295
有效地 64295
驼 64267
募 64259
在地 64212
▁pm 64164
水分 64035
勺 64032
争夺 64011
免疫 63943
凹 63943
候选人 63935
蘑 63917
当选 63794
瓶颈 63773
▁sim 63771
痹 63740
延期 63686
岚 63630
秋冬 63629
货币政策 63628
高新技术 63564
等地 63560
▁je 63552
盯 63548
孜 63546
殖民 63535
相片 63468
▁ste 63466
违法行为 63401
另有 63371
▁ms 63370
踏上 63363
尔斯 63351
世界各地 63336
卤 63326
髦 63305
▁up 63216
朔 63192
强劲 63069
嗽 62955
▁st 62940
鼓舞 62914
侵略 62902
冉 62882
▁ct 62853
淇 62833
崭 62829
物联网 62814
传来 62791
渠 62784
掀起 62724
澄清 62688
▁high 62503
世界中 62476
美景 62474
拷 62464
艇 62427
戚 62424
棕 62397
可持续发展 62349
瘤 62347
净利润 62230
隆重 62179
美白 62174
鄂 62112
克拉 62100
哺 62024
禄 61993
膊 61925
清水 61885
日电 61848
草莓 61823
眯 61791
迷惑 61788
▁da 61765
憨 61738
排名第 61712
业内人士 61663
炖 61627
比赛中 61621
钧 61618
微信公众号 61588
郝 61555
ry 61547
人性化 61540
应用程序 61538
籁 61512
熔 61484
瞪 61482
埠 61457
啸 61421
▁co 61412
所需要的 61380
抗议 61370
酒精 61365
料理 61331
▁hold 61326
占比 61310
加密 61268
努 61217
捕捉 61206
旱 61203
藉 61182
凸显 61160
骄 61146
共和国 61135
▁dvd 61128
同仁 61120
刁 61113
咚 61106
隘 61096
平日 61011
上手 60906
龚 60819
怠 60769
▁page 60758
棘 60751
禾 60698
昵 60643
跌幅 60586
揭露 60460
胳 60448
香蕉 60444
传感器 60436
悚 60408
这意味着 60367
赢得了 60362
我省 60318
浪潮 60318
保罗 60313
ber 60301
倔 60271
甸 60248
唧 60208
细菌 60201
侵害 60169
阿拉伯 60112
本市 60089
瞄 60041
灸 60025
他表示 59977
博览会 59960
火灾 59939
椅子 59934
外科 59914
天文 59907
配方 59901
听取 59898
榆 59889
引擎 59888
绮 59848
隧道 59822
昕 59780
照明 59774
莓 59712
噜 59710
狄 59698
蝇 59691
判定 59679
汝 59640
沁 59637
芒 59617
众所周知 59601
律师事务所 59591
铲 59555
以下简称 59547
混凝土 59538
北京时间 59527
矢 59526
呛 59520
发展趋势 59504
空军 59499
着力 59498
毙 59497
聂 59415
l 59394
宣言 59385
华盛顿 59369
港口 59353
幢 59262
帜 59190
制裁 59123
国会 59119
吝 59110
疮 59103
▁mi 59060
威尔 58976
猩 58965
fc 58931
虞 58889
研讨会 58666
泻 58665
歉 58650
同期 58592
邯 58575
日讯 58506
伸手 58495
伸出 58482
熄 58474
雄厚 58472
民航 58453
展望 58439
粹 58396
谛 58376
癫 58327
迷你 58201
教堂 58189
可行性 58175
多位 58120
赛车 58105
▁pdf 58081
坦言 58078
产业发展 58061
洛杉矶 58056
▁hd 58045
惭 57971
沐 57959
柿 57953
跨境 57919
厄 57873
▁sp 57827
液晶 57754
庐 57645
的情形 57604
脖 57558
悄 57553
本届 57533
▁flash 57519
da 57443
▁ar 57431
政务 57383
躯 57358
虐待 57353
之日起 57302
海滩 57285
不断提高 57241
考古 57219
雕塑 57212
及其他 57208
郸 57204
辙 57188
日报道 57166
行事 57090
扼 57072
禹 57062
噪 57057
梭 57043
▁kb 57016
▁昨日 56968
栖 56926
喃 56846
为期 56798
锯 56674
兢 56646
lan 56605
▁wa 56569
骆 56568
甫 56562
拎 56472
消毒 56469
剃 56465
优异 56415
背包 56408
▁sc 56391
操控 56380
圭 56377
莽 56360
陪同 56352
日常生活中 56331
明亮 56319
至关重要 56280
表彰 56254
梓 56249
审议 56231
所需的 56089
秉承 56071
梳 56061
同比 56018
印发 55989
制造商 55987
▁office 55982
斧 55900
破碎 55834
毋 55823
▁gi 55818
马尔 55739
古老的 55729
口感 55681
藻 55657
朦 55644
巍 55577
章程 55562
有关规定 55502
晖 55485
容器 55476
▁vc 55438
畸 55434
cp 55429
沿海 55392
香味 55374
狙 55298
偷拍 55282
竣 55200
▁non 55196
东部 55130
▁sm 55111
坚实 55102
同伴 55059
大幅度 55041
埃及 55021
中共中央 55012
中方 54962
▁offer 54891
惦 54875
巡视 54873
棠 54847
▁opp 54821
▁mb 54818
棱 54809
掺 54789
快速发展 54717
缤 54697
拭 54678
清晨 54658
新一轮 54633
为您提供 54559
友善 54385
支援 54321
篷 54311
座谈会 54305
▁get 54293
若有 54252
烘 54179
国立 54149
▁sa 54133
新闻发布会 54133
嗜 54131
合法权益 54103
涕 54047
共计 54040
楷 54003
▁hu 54001
雍 53969
以色列 53968
▁re 53889
眸 53839
胧 53772
外星人 53758
政党 53706
迄今 53607
恺 53549
漱 53532
湖人 53526
可供 53503
▁max 53478
▁hre 53437
会谈 53396
塞尔 53394
堰 53381
驹 53376
民营企业 53340
沽 53330
臀 53321
糖尿病 53276
中国科学院 53275
星巴克 53230
事例 53229
娴 53227
不确定性 53213
闵 53197
麒 53195
交通运输 53193
从业人员 53147
作物 53124
淆 53063
烁 53049
地理位置 53041
赘 53033
▁show 52975
窑 52971
裹 52968
茵 52930
乍 52914
犯罪嫌疑人 52861
脾 52845
意想不到的 52814
相继 52813
咦 52803
搜索引擎 52803
囚 52777
增进 52738
区块链 52732
晦 52732
雇主 52680
▁number 52637
晏 52605
弧 52600
缕 52588
云计算 52585
痞 52585
开幕式 52580
惬 52545
袱 52530
充分利用 52528
土耳其 52515
低迷 52514
瑕疵 52508
焚 52492
践行 52480
悯 52479
惶 52476
▁se 52418
入侵 52391
必不可少 52387
捅 52355
手臂 52342
魁 52333
叽 52304
le 52286
聋 52262
抵达 52251
溃 52233
繁忙 52227
牟 52182
茄 52128
jj 52096
皓 52054
光伏 52040
慢性 52031
燃料 52025
烯 51982
有期徒刑 51965
墨西哥 51955
彷 51947
亢 51945
拱 51917
▁plus 51895
遛 51882
▁girl 51854
福音 51828
▁ma 51816
三分之一 51797
卦 51770
▁sun 51764
丨 51690
寒冷 51638
往返 51613
友人 51516
糗 51507
总书记 51498
上班族 51474
已久的 51363
阮 51344
奎 51322
副作用 51318
局势 51317
台阶 51267
搂 51192
bo 51172
粽 51151
超值 51137
诅 51124
茎 51104
市场份额 51101
招牌 51007
被认为是 50992
脱贫 50982
艘 50956
移植 50916
契机 50874
半岛 50873
酥 50865
南非 50853
新作 50840
行列 50839
秘书长 50827
无人机 50791
番茄 50768
生殖 50766
憎 50764
▁im 50721
艾滋病 50691
外交部 50675
蹄 50619
哉 50582
蓬勃 50553
镐 50546
民意 50537
匡 50520
狡 50492
人大常委会 50464
美洲 50459
悠久 50458
放置 50440
▁lo 50385
蝉 50305
▁day 50303
菠 50267
泸 50247
俪 50084
不必要的 50040
▁low 50038
注射 50003
人大代表 50001
发言人 49966
严峻 49947
基督 49920
钝 49914
lv 49893
佟 49868
加强对 49863
荔 49803
▁li 49793
索取 49790
刊登 49765
▁pa 49708
店内 49645
卉 49616
近年 49592
旺盛 49589
在使用 49581
饪 49568
伊斯兰 49528
倚 49526
第二十 49520
海岸 49506
慷 49485
nes 49475
阿根廷 49455
扉 49368
穗 49328
迷人的 49163
部份 49161
迦 49148
螃 49136
贯彻落实 49132
▁jo 49116
个人信息 49112
研究者 49067
傍晚 49012
▁ed 48984
不佳 48960
发展中国家 48860
▁happy 48807
翩 48767
疹 48743
焉 48723
胎儿 48720
第三者 48694
毛巾 48675
宛 48674
颐 48663
宣告 48659
绞 48624
哈利 48564
党中央 48558
珀 48522
投影 48518
褒 48508
▁wow 48500
竿 48456
秃 48440
镀 48434
胸部 48416
▁ing 48409
眶 48387
悖 48381
领导小组 48375
汶 48368
市中心 48354
ed 48297
南部 48256
第十三 48233
昨 48193
制服 48171
糯 48145
畔 48119
佰 48116
侥 48076
逮 48076
数百 48017
扞 48009
万吨 47990
前所未有的 47907
am 47825
烙 47823
灼 47817
拇 47780
pv 47766
▁if 47755
缅 47724
籽 47695
印尼 47689
走出去 47683
梧 47666
新华网 47625
械 47602
汀 47594
践 47589
保湿 47578
恬 47566
▁cr 47562
钰 47512
佼 47486
萃 47471
人民网 47470
nike 47464
▁bio 47461
被害 47425
袭击 47425
娓 47420
肃 47417
酌 47417
缓缓 47394
崽 47388
煌 47386
不只 47373
人民代表大会 47373
懈 47315
俐 47299
议员 47291
李克强 47269
座椅 47267
研究成果 47240
is 47228
唬 47214
柏林 47164
孵化 47126
md 47038
娼 47019
▁ale 46935
pp 46908
反射 46897
副总裁 46894
首位 46865
虔 46842
▁angel 46808
久久 46769
川普 46767
等领域 46748
普京 46736
镖 46724
炬 46685
研究人员 46669
室外 46655
▁time 46635
涅 46572
▁rain 46487
芹 46469
酶 46445
戛 46361
娥 46351
嘴唇 46327
尧 46316
皇马 46298
鲸 46235
簧 46203
等方式 46177
月末 46175
阅读全文 46166
曙 46126
医疗器械 46096
阎 46090
▁py 46026
记者采访 46008
其中包括 45992
猿 45929
璨 45907
褪 45849
分别为 45810
纶 45758
拧 45745
▁mr 45736
省政府 45732
浒 45728
杖 45701
世界各国 45698
▁internet 45634
法案 45552
施行 45549
磷 45505
清爽 45499
咐 45484
提案 45479
潢 45466
高等学校 45456
各式 45422
▁gre 45409
肛 45396
诋 45350
▁hp 45341
协定 45328
岔 45313
考量 45302
梅西 45270
布拉 45198
蝠 45194
草案 45179
生态环境 45145
雏 45115
缅甸 45064
鞠 45046
酝 45028
豚 45026
徨 45020
憾 45006
呲 44984
城堡 44983
匮 44968
巩 44955
渗 44908
瀚 44902
▁new 44894
喀 44848
奠定了 44846
邑 44836
鲨 44822
科技创新 44816
惚 44814
rt 44727
▁icon 44727
嬉 44698
茬 44693
鳄 44663
航母 44614
琊 44613
烨 44610
穿梭 44608
▁essay 44595
▁on 44563
西洋 44519
锂 44499
隋 44496
睫毛 44479
涤 44478
高度重视 44444
漳 44442
ft 44430
堤 44389
为一体的 44386
雌 44321
窟 44310
氯 44308
发展战略 44300
▁dada 44295
栓 44292
蹈 44279
衰退 44270
繁殖 44253
司令 44245
铠 44217
讪 44214
▁uc 44186
党员干部 44153
在这种情况下 44100
议题 44084
▁sh 44051
帷 44035
悉尼 44019
医疗机构 44015
健康发展 44004
先前 43998
德里 43978
陕 43953
▁gay 43936
一带一路 43909
智能化 43909
盔 43902
闫 43889
巴士 43881
沙特 43880
祁 43847
唾 43824
商务部 43805
追溯 43783
布朗 43770
霄 43712
▁super 43706
晾 43685
睛 43658
镯 43651
蝙 43648
禧 43622
疙 43553
瘩 43522
醛 43447
▁ti 43412
遏制 43387
躬 43338
办公厅 43337
悼 43218
呱 43201
璀 43181
碾 43144
茉 43142
耸 43136
忑 43114
真空 43082
缪 43070
荟 43049
in 43023
▁she 43016
凿 43001
漾 43001
鳞 42946
海峡 42897
盏 42860
滑雪 42846
目前已 42818
嘀 42814
参展 42800
宕 42797
柴油 42787
忐 42737
副书记 42685
美军 42685
比率 42664
赌场 42648
中国特色社会主义 42646
嗅 42630
棺 42580
▁po 42554
推介 42543
衅 42512
沌 42510
汲 42495
最大限度 42429
进球 42410
共同努力 42350
绰 42334
市内 42300
靳 42291
年上半年 42290
筱 42282
臆 42276
议会 42262
新能源汽车 42260
柚 42256
襟 42216
丞 42206
廓 42126
php 42100
rp 42090
厮 42050
哮 42048
募集 42044
惋 41956
居家 41905
dash 41890
锌 41885
笋 41866
▁window 41834
镶 41808
完工 41664
侬 41651
在一定程度上 41600
砌 41587
疑似 41571
嘤 41521
食材 41494
国家安全 41492
高水平 41484
桔 41471
九州 41455
椰 41385
公约 41334
on 41279
放映 41222
巴萨 41215
ment 41204
母乳 41197
▁ap 41178
庇 41178
大手 41160
主场 41156
忏 41119
裴 41111
▁et 41099
拆除 41097
局局长 41050
患有 41020
▁itu 41012
炜 40945
日凌晨 40874
促成 40863
噬 40859
歧 40855
汹 40840
特斯拉 40772
攀升 40752
可持续 40744
实体经济 40744
乔治 40725
▁external 40696
伯特 40692
身旁 40662
革新 40642
bg 40611
核准 40611
代表团 40598
逻 40586
▁http 40555
人才培养 40548
俘 40547
嗑 40544
威廉 40519
亵 40452
莆 40449
安全管理 40438
坨 40437
盎 40430
窜 40422
▁kis 40394
北部 40369
▁mini 40324
密封 40324
拣 40322
秽 40298
合作关系 40291
驯 40265
血糖 40260
记者从 40250
十三五 40223
海水 40218
硝 40211
thon 40210
肮 40184
痰 40149
葡萄牙 40117
蔓延 40116
芝加哥 40115
▁bi 40094
浊 40071
观测 40063
en 40061
娄 40053
▁joh 40029
基督徒 40026
网络安全 39972
玫 39873
晟 39801
卒 39753
▁ak 39750
▁np 39747
杞 39685
尼斯 39662
▁si 39642
社群 39548
玖 39480
▁root 39469
钛 39463
滕 39442
精密 39430
妾 39424
▁target 39325
pi 39288
te 39272
渭 39233
桓 39176
沐浴 39161
亥 39137
曼联 39013
薰 38925
锣 38916
穆斯林 38877
谤 38876
▁sat 38873
璇 38836
各界 38780
dd 38779
cd 38770
约为 38766
走廊 38766
妥善 38739
抬起 38714
里程碑 38703
赡 38697
寅 38686
召集 38669
▁will 38666
咙 38652
击败 38647
炙 38616
惺 38605
精度 38604
社会各界 38555
驿 38549
跋 38481
乳房 38459
瑾 38457
▁pos 38446
辄 38428
电子邮件 38395
婕 38342
季后赛 38333
▁ces 38318
一站式 38313
羡 38313
斐 38300
▁solo 38183
保有 38151
伊拉克 38102
▁siri 38087
蛤 38073
窘 38011
冰淇淋 37982
琉 37974
tt 37972
个百分点 37914
球星 37908
惮 37906
朕 37848
寇 37715
笙 37713
绸 37653
餐桌 37630
改良 37617
嬛 37600
客房 37527
胺 37484
淌 37476
爱尔兰 37464
是非常重要的 37433
▁ni 37376
笑道 37374
蛊 37318
厕 37317
▁he 37241
sl 37211
洱 37199
零部件 37159
秉 37156
▁rap 37106
肘 37103
啬 37072
砺 37071
my 37058
▁tom 37044
▁phone 37028
▁data 36955
冕 36948
浴室 36941
蔻 36933
哥伦比亚 36899
程式 36887
使用者 36879
敖 36819
逮捕 36800
彼得 36784
世代 36760
吏 36702
螂 36696
党委书记 36668
▁bed 36666
共建 36642
▁boy 36629
钠 36609
噱 36598
cle 36596
官兵 36551
按下 36488
莫斯科 36409
禺 36404
前夕 36401
▁seo 36377
渎 36374
ce 36369
黯 36365
宥 36354
活性 36335
壕 36323
缉 36308
nc 36274
诽 36258
蚌 36254
壤 36210
褐 36172
木材 36126
box 36088
懿 36047
铂 36044
▁api 36039
▁assign 35964
火山 35948
▁wi 35914
耘 35887
外籍 35885
鲤 35856
遍布 35815
噻 35810
霹 35802
玻 35799
多伦多 35788
荫 35772
口岸 35758
掷 35747
呸 35745
尉 35730
喆 35723
▁party 35707
跆 35683
登山 35664
民主党 35646
ne 35633
▁ea 35602
绷 35533
谩 35519
栩 35510
懊 35490
鸥 35486
▁dan 35481
▁mod 35480
墩 35448
切割 35388
肥胖 35371
▁ora 35364
▁out 35347
乌克兰 35340
穹 35317
伶 35300
▁ki 35265
++ 35214
殇 35208
璃 35206
茧 35194
夭 35186
自由行 35181
棋牌 35177
汾 35176
秧 35175
叙利亚 35158
雳 35141
同比增长 35113
痪 35090
china 35084
刨 35047
老化 35037
ch 35033
樟 35006
蕊 35002
烤肉 35000
▁ol 34990
辫 34988
赂 34892
锥 34869
匆 34787
沓 34786
▁cha 34746
jpg 34745
▁pay 34744
涉案 34701
to 34649
▁git 34631
骁 34631
▁mark 34609
仨 34599
副主席 34595
膳 34576
挪威 34575
忒 34564
地形 34521
▁kind 34509
gg 34502
足协 34456
瀑布 34451
摹 34411
了解更多 34383
苯 34383
掀 34314
大臣 34264
便秘 34258
韭 34229
可靠性 34189
▁du 34160
理事会 34149
黔 34125
▁cai 34036
辕 34032
年起 34005
辗 33984
蔷 33960
指控 33940
姻 33929
窒 33928
孰 33920
骇 33916
游览 33902
萤 33890
▁un 33875
全然 33872
遐 33842
胚 33818
弛 33817
▁air 33810
笃 33761
乒 33729
讹 33694
檀 33639
▁beyond 33611
蔡英文 33599
陇 33597
诧 33574
▁qa 33558
藩 33546
峨 33534
中部 33522
霓 33522
英格兰 33518
甥 33487
▁exe 33460
谚 33423
歼 33338
辍 33325
紊 33318
舜 33308
菁 33289
溯 33276
el 33224
茗 33217
不可或缺的 33209
摒 33192
各项工作 33149
濡 33148
莺 33130
栽培 33123
踊 33111
惘 33104
注目 33061
挟 33046
研修 32986
粟 32884
东盟 32880
咎 32873
怅 32858
峻 32847
芋 32832
迫害 32830
蔓 32816
值得一提的是 32815
腹部 32801
抨 32746
海拔 32741
埔 32732
▁son 32718
安东尼 32717
赃 32711
屄 32701
▁home 32680
冗 32637
bs 32596
矜 32589
啼 32579
趾 32575
数年 32548
蔼 32544
经济社会发展 32540
ly 32525
▁ge 32523
咀 32445
孚 32398
煜 32365
重要性 32363
▁pop 32355
事前 32307
巴基斯坦 32297
莘 32285
住所 32272
珂 32231
▁lumi 32169
祺 32166
▁what 32160
▁ph 32088
▁photoshop 32085
垦 32076
唏 32054
拂 32002
荼 31917
釜 31893
提早 31882
▁os 31875
民进党 31839
进一步加强 31805
be 31789
垢 31761
▁music 31758
▁che 31740
濒 31732
阂 31729
▁bl 31705
重要作用 31696
▁function 31673
藕 31617
元件 31600
腌 31585
踹 31580
邃 31539
nbsp 31525
kia 31512
▁link 31509
吭 31508
凛 31504
▁server 31478
臻 31454
的重要组成部分 31448
跤 31442
沼 31430
兀 31375
氮 31294
▁dream 31276
瞌 31268
嚎 31243
▁pl 31224
阖 31200
流感 31194
逞 31187
▁vb 31178
坂 31177
寐 31158
用餐 31125
▁intel 31097
镁 31064
拗 31056
安防 31040
檐 31031
▁mich 30990
▁key 30938
慑 30931
棒球 30930
琥 30916
工夫 30901
屹 30881
菏 30847
桦 30750
槿 30744
缭 30690
灬 30688
咻 30673
▁twitter 30652
政协委员 30632
瑕 30596
脐 30576
放射 30575
▁ka 30534
芥 30502
磋 30493
轶 30473
汐 30445
泾 30439
昼 30399
槟 30396
果汁 30394
炳 30382
洼 30381
裳 30359
▁ml 30342
习近平总书记 30328
▁sz 30283
▁ne 30248
信徒 30234
nt 30228
展出 30228
颊 30203
篡 30181
▁real 30180
电动汽车 30132
袄 30104
国防部 30050
倡议 30032
▁an 30028
撮 30023
凋 30003
克里斯 29992
恪 29972
首相 29943
渍 29938
ll 29930
报道称 29930
rc 29855
钳 29847
翟 29811
钥 29809
靶 29765
腑 29755
琶 29741
枷 29735
▁all 29719
篱 29713
ck 29669
猖 29642
锵 29626
▁star 29616
殡 29614
精油 29557
劵 29553
骤 29542
猝 29528
屉 29516
▁life 29504
扳 29467
婧 29394
诙 29362
▁file 29354
安倍 29320
祠 29282
▁vivo 29278
▁wc 29248
se 29191
nd 29175
成员国 29164
驶 29093
湄 29053
钾 29040
▁sharp 29039
酪 29019
▁ping 29015
▁jack 28916
投注 28887
痣 28856
求人 28851
叻 28836
▁chr 28811
轼 28796
苔 28776
公分 28762
画像 28749
璧 28743
▁think 28708
矛 28672
▁hip 28611
岐 28605
平方公里 28593
槐 28587
物件 28586
祀 28585
欧冠 28574
撬 28572
睬 28550
熟女 28528
忱 28517
▁king 28459
年金 28453
诲 28440
信箱 28422
峥 28407
ii 28364
悸 28361
▁nice 28350
濮 28329
▁store 28323
英超 28283
rl 28261
睇 28248
增幅 28224
ve 28207
▁ho 28179
喋 28147
楞 28121
比利时 28102
锻 28099
肴 28075
▁free 28071
鹦 28051
为客户提供 28048
妊娠 28041
蛾 28019
夜市 28017
屿 27996
▁oo 27985
bd 27866
邋 27846
▁bat 27835
迥 27813
斟 27802
晰 27782
效能 27717
▁mat 27714
墟 27712
皖 27691
▁young 27685
玥 27683
嗤 27672
恢 27642
祟 27636
貂 27631
推特 27630
铛 27600
揖 27571
酮 27564
斯塔 27559
擒 27522
ho 27521
泗 27509
ke 27468
钗 27466
绥 27448
de 27427
榕 27403
助攻 27397
馍 27392
喇 27324
or 27310
play 27301
ang 27292
转型升级 27256
▁skype 27243
cl 27216
眩 27199
酯 27183
轧 27160
柬埔寨 27140
铮 27115
日式 27068
掂 27042
殆 27028
▁al 27014
芷 27012
嗲 27004
▁blog 26992
对外开放 26986
腆 26957
化合物 26941
▁fi 26925
撼 26917
陡 26907
淤 26833
讥 26832
亟 26802
枸 26769
栀 26722
礁 26714
黍 26710
▁twin 26709
腮 26685
▁just 26679
鹉 26673
潜艇 26672
▁tp 26664
俨 26648
炅 26638
炽 26633
咆 26616
▁mo 26609
稼 26607
匙 26575
奶油 26555
顷 26550
博彩 26546
京都 26545
中文字幕 26536
丹尼 26497
烘焙 26485
筐 26445
碉 26444
▁youtube 26437
url 26424
羹 26412
陨 26372
nel 26361
蹋 26326
▁op 26289
舆 26213
鳖 26190
酋 26175
稠 26167
▁lady 26122
呻 26121
ise 26062
骷 26048
痔 26046
遢 26034
诟 26016
饵 26008
月下旬 25987
万辆 25981
髅 25979
▁surface 25975
早前 25934
▁en 25923
成份 25922
ucci 25892
一年一度的 25872
值得注意的是 25862
隽 25850
瑚 25843
幌 25670
▁om 25662
戮 25657
伎 25635
▁sky 25633
氟 25586
享用 25571
明治 25545
栅 25518
产品和服务 25510
▁aj 25488
用意 25466
璋 25451
淼 25450
▁visa 25447
姊妹 25440
熠 25400
虏 25376
蟑 25370
dr 25368
比分 25366
汛 25366
偕 25355
▁play 25354
诬 25335
骼 25331
豌 25303
▁rom 25288
舵 25279
▁ci 25251
▁con 25240
▁yes 25129
咄 25074
ar 25051
厥 25039
袒 25005
最新消息 25004
▁ro 24981
dy 24967
怦 24954
mes 24941
党和国家 24910
蹊 24901
▁can 24852
胰 24852
涟 24840
尬 24815
▁official 24794
绛 24762
腼 24746
▁mate 24669
▁vi 24661
利物浦 24646
泯 24640
客家 24627
獒 24624
犊 24623
擂 24610
苇 24565
涮 24526
缇 24491
岑 24472
糜 24448
娱乐场 24426
擎 24410
龌 24391
威尼斯 24375
天主教 24370
▁are 24367
甭 24339
佚 24333
啤 24324
坞 24323
▁miss 24285
琵 24282
泷 24270
host 24220
▁que 24193
▁touch 24182
潦 24176
蹬 24167
芈 24162
粕 24160
夯 24156
卯 24137
ton 24115
箫 24098
▁dell 24064
▁house 24056
露天 24050
惆 24039
箴 24033
皮革 24025
瑰 24017
捎 24007
嘶 24002
妩 23985
颅 23983
▁ao 23971
海域 23910
茸 23863
漩 23827
商圈 23784
媲 23765
吆 23755
▁auto 23752
xus 23747
琛 23736
▁master 23717
中止 23700
轿 23694
急速 23681
任期 23677
馁 23650
阉 23618
休日 23598
蜓 23595
mat 23592
免疫力 23589
蜻 23588
sp 23568
遁 23534
重要讲话 23518
狈 23516
中央政治局 23510
夏威夷 23482
瘟 23470
▁world 23446
赦 23441
丝绸之路 23433
岛屿 23414
衢 23412
汰 23383
酣 23382
忻 23362
溅 23358
族群 23307
曼谷 23290
匝 23286
跷 23281
洙 23252
▁car 23243
诣 23193
▁ra 23185
荤 23185
芮 23180
▁kg 23166
窖 23166
▁call 23151
▁vista 23135
▁toto 23075
游泳池 23051
▁that 23018
迸 23005
▁sap 23000
俑 22970
柒 22966
哽 22962
鳌 22931
鸳 22904
迂 22902
祎 22882
疡 22849
斓 22843
首度 22839
ty 22810
▁ch 22802
baby 22786
双边 22770
啵 22763
▁es 22744
▁ji 22738
二氧化碳 22664
▁end 22587
▁pr 22587
vc 22546
贰 22511
据报道 22508
猬 22498
▁spa 22488
▁rock 22481
釉 22457
em 22427
pod 22421
烽 22417
▁les 22366
ado 22358
羲 22343
▁power 22301
▁fa 22289
榻 22284
庵 22283
兼具 22252
microsoft 22245
自动驾驶 22234
pal 22164
殃 22156
愫 22122
瓢 22090
开奖 22042
龊 22038
枭 22019
阿富汗 21995
vid 21932
炊 21904
万平方米 21885
首席执行官 21878
line 21856
峪 21850
据统计 21811
簇 21796
娩 21788
宸 21739
▁oh 21729
政府工作报告 21719
胤 21712
下午茶 21710
彝 21699
戊 21688
kk 21686
贮 21685
ley 21670
蛛 21669
脓 21661
▁pra 21645
当地时间 21612
ds 21605
狩 21588
珞 21556
▁har 21553
猾 21545
跻 21531
氪 21509
民宿 21491
常务副 21487
▁nh 21470
傍 21465
羚 21461
褶 21453
▁best 21451
喳 21451
冢 21441
奚 21438
粱 21437
鸯 21431
锢 21426
锚 21402
谙 21395
公投 21376
▁gl 21338
小学校 21324
珉 21296
▁part 21279
sh 21268
▁internal 21264
▁from 21262
箍 21256
坯 21253
▁mar 21237
禀 21225
▁who 21204
截至目前 21197
放送 21183
痊 21180
man 21155
昙 21151
嘚 21133
陛 21060
骋 21042
犁 21030
鹊 21022
麓 20995
胁 20968
芊 20965
▁this 20954
阑 20928
楂 20926
▁vo 20925
嘈 20914
戎 20909
庶 20904
▁edge 20868
▁sy 20850
▁etc 20845
本站 20797
致辞 20777
人妻 20733
峙 20708
摁 20699
天皇 20697
梢 20683
馥 20676
瞥 20671
祂 20627
裆 20566
灏 20538
富含 20534
六合彩 20531
▁bp 20529
泌 20527
葆 20523
fa 20519
萦 20512
fps 20482
▁dh 20468
▁studio 20448
▁fb 20438
共和党 20410
椭 20385
▁paper 20370
讷 20366
昀 20350
▁not 20332
淡水 20317
映像 20316
▁but 20298
太郎 20233
胭 20223
法轮功 20213
皋 20204
鸠 20203
px 20171
亦可 20170
▁wrap 20115
悴 20114
缜 20114
个国家和地区 20094
地中海 20067
踝 20063
gue 20051
徙 20046
ker 20038
礴 20035
年生 20027
攘 20027
鱿 20025
hk 20007
fox 20006
▁fly 20006
we 19999
▁el 19979
book 19972
嬷 19961
▁gar 19954
憔 19941
瘪 19930
受访者 19883
▁hmm 19846
喱 19833
ver 19813
匣 19796
戾 19782
▁ama 19775
蓓 19759
诩 19744
法令 19741
倭 19729
羔 19711
▁mix 19707
忡 19685
茁 19677
es 19661
弩 19650
▁heart 19647
鹃 19630
go 19628
ul 19586
垣 19566
▁name 19557
碘 19557
拴 19540
缈 19520
滇 19472
踵 19466
漪 19452
登入 19442
▁fx 19437
嗣 19437
▁coco 19417
匈 19403
▁image 19402
慵 19397
苞 19391
ui 19357
▁mama 19345
胡椒 19314
lab 19294
睫 19290
▁ha 19289
缥 19275
xml 19262
▁ost 19260
▁beat 19256
▁your 19237
焖 19234
捶 19217
大阪 19216
燎 19208
郴 19205
衙 19199
捷克 19186
港元 19179
去年同期 19169
阿森纳 19166
▁fans 19152
降至 19151
篆 19134
溉 19111
潼 19106
吁 19089
恃 19077
▁char 19045
肄 19022
丿 19020
切尔西 19017
怔 19010
▁list 18990
迢 18974
嚏 18955
▁su 18931
▁dis 18927
ity 18916
▁fo 18915
腋 18902
拈 18897
▁care 18858
▁demo 18812
歆 18789
遴 18768
纫 18736
膛 18643
▁eva 18642
谧 18620
▁open 18587
致力 18572
outlook 18571
祯 18567
倡 18549
zon 18530
烷 18505
淋浴 18482
寰 18476
真面目 18462
▁bit 18446
褚 18438
苓 18420
吩 18416
▁cool 18413
戌 18396
泳池 18385
▁javascript 18355
秉持 18355
嫦 18343
▁over 18321
篮板 18318
▁ko 18313
▁alt 18304
鹭 18295
▁mid 18287
穿搭 18271
暄 18236
迩 18206
▁blue 18199
▁moto 18181
蟆 18181
▁galaxy 18179
掖 18158
nn 18157
睾 18153
▁sorry 18101
▁ba 18099
镍 18094
搀 18073
取材 18064
砰 18064
荀 18055
▁los 18049
年第 18047
裘 18044
唆 18043
璞 18011
▁ju 18002
依存 18001
翱 17990
▁step 17964
▁mg 17957
▁sci 17953
wi 17942
骸 17941
诏 17918
毓 17909
▁ke 17872
▁lu 17871
示威 17866
ow 17865
莞 17852
酗 17843
剿 17789
▁red 17766
炕 17763
蔗 17763
莪 17722
酉 17721
▁bu 17710
瑛 17686
▁feel 17680
▁don 17676
觑 17665
clip 17647
叩 17608
▁kw 17602
▁sf 17578
滁 17564
匈牙利 17557
▁true 17555
▁rose 17541
ted 17530
▁jy 17521
曳 17482
酵素 17477
砚 17474
柑 17468
▁gaga 17416
▁look 17398
▁gh 17377
▁sam 17369
▁with 17362
▁fire 17355
▁wan 17352
侏 17332
泓 17318
bay 17290
瑙 17280
ven 17264
ix 17263
▁bur 17254
霏 17252
钵 17226
昱 17225
▁line 17222
毂 17220
▁game 17204
▁gc 17204
▁corta 17201
▁hop 17196
殉 17181
▁ben 17175
骛 17167
▁ga 17166
▁pt 17163
公演 17155
仄 17137
秆 17121
▁why 17090
衩 17064
▁rs 17058
玟 17052
jd 17045
胥 17038
飒 17019
▁club 17013
▁like 16993
▁shi 16978
▁dll 16972
ga 16957
阙 16956
▁instagram 16897
▁pin 16896
▁college 16895
cy 16851
▁ff 16840
▁db 16836
簸 16815
濑 16740
▁online 16736
猕 16729
▁te 16716
搪 16716
ig 16688
馄 16674
▁dr 16633
嗝 16623
▁ee 16564
病院 16559
磐 16516
共通 16515
巳 16510
蜚 16497
▁dos 16493
藐 16468
玷 16454
▁doc 16441
叁 16435
▁model 16432
个工作日内 16414
米国 16406
漯 16399
冇 16363
熹 16355
隅 16332
▁bill 16305
▁polo 16277
腩 16274
美方 16255
▁level 16249
秸 16218
▁email 16204
蘸 16202
▁war 16191
乓 16187
蕉 16144
▁yo 16120
娲 16116
硒 16113
褥 16100
囡 16077
饨 16072
▁school 16055
金正恩 16052
皙 16049
竺 16045
蔬 16038
榷 16027
▁her 16023
蛀 16000
亘 15996
诃 15985
谔 15977
png 15966
莅 15959
▁ah 15946
蚤 15939
瘸 15936
lor 15930
▁night 15925
rry 15897
娆 15891
type 15887
▁type 15872
圃 15858
涧 15851
噎 15849
通路 15833
▁lan 15793
▁bar 15791
绫 15791
孢 15790
壬 15760
陂 15753
ome 15734
凰 15726
恿 15722
拮 15714
▁wo 15708
癣 15692
匕 15684
膺 15668
椿 15663
buff 15656
闰 15613
▁christ 15569
▁box 15548
瘠 15524
铉 15523
撂 15516
咫 15505
▁edu 15492
嗔 15478
▁tay 15440
▁running 15439
▁only 15435
傀 15434
dk 15431
吠 15423
泱 15420
mi 15401
旻 15400
噔 15392
▁face 15387
bi 15378
嗖 15371
瑄 15371
痿 15370
ts 15356
mk 15329
疣 15313
▁mail 15291
挝 15291
乜 15288
瞿 15263
que 15262
锄 15256
曜 15224
烩 15204
苒 15196
▁code 15177
咿 15177
▁system 15168
铿 15130
剽 15127
偎 15110
▁ec 15100
蹴 15098
▁mit 15096
▁black 15094
诿 15094
▁bai 15093
蠕 15080
飚 15056
▁may 15048
▁pass 15047
儡 15045
钮 15037
覃 15024
quot 15008
龈 14996
圩 14994
max 14993
炯 14960
al 14944
钊 14943
墅 14935
蒿 14933
佘 14927
▁br 14924
▁jim 14911
眺 14906
镳 14904
ci 14898
愕 14898
仟 14884
孬 14877
▁cu 14875
▁more 14857
tion 14853
us 14835
镰 14834
▁kimi 14831
町 14810
宙 14808
du 14801
ubuntu 14797
▁junior 14788
▁how 14787
fl 14780
戟 14773
锰 14756
▁cl 14754
▁van 14754
by 14736
▁sha 14726
皈 14721
▁idea 14716
本赛季 14707
氰 14707
峭 14704
嘅 14703
裱 14687
▁zu 14680
砥 14675
绢 14669
berry 14667
co 14658
轲 14643
嫡 14615
▁ala 14608
浴缸 14603
亳 14595
▁coach 14592
do 14588
脯 14584
蹉 14582
▁ve 14532
▁arm 14529
铢 14522
▁th 14511
吒 14511
肏 14485
▁cut 14469
▁gra 14437
▁tel 14406
▁say 14404
攸 14366
▁pet 14352
蹿 14333
▁shift 14296
囖 14284
贻 14265
▁forever 14253
▁fe 14244
臧 14223
溥 14218
脱毛 14218
ie 14209
▁team 14206
纭 14203
啷 14197
tty 14184
犷 14181
桀 14176
坍 14170
扪 14162
ney 14146
溧 14142
▁spring 14135
▁bang 14133
▁watch 14097
mas 14083
岱 14080
谆 14065
th 14055
挞 14041
白癜风 14020
飓 14001
▁amp 13998
酚 13998
肽 13993
巴塞罗那 13984
▁min 13977
沭 13971
▁song 13946
遨 13944
皿 13942
蒽 13941
恁 13927
▁adidas 13920
蛟 13909
▁var 13901
叱 13899
慕尼黑 13883
▁sg 13880
活用 13862
恙 13858
环球时报 13842
▁cv 13823
翎 13821
▁test 13814
俾 13812
铎 13811
▁zero 13803
▁group 13801
榔 13796
毗 13791
荚 13779
颌 13769
翊 13763
瘁 13745
羌 13724
浏 13721
鲫 13721
栾 13716
▁va 13708
蟒 13703
雇用 13678
▁case 13677
▁project 13663
姣 13639
啄 13633
pl 13629
▁tat 13620
▁english 13597
宦 13597
谏 13574
涓 13567
▁mari 13562
vidi 13559
奂 13530
葡 13529
▁boot 13523
饕 13509
珈 13506
撵 13489
▁ts 13472
挎 13461
lc 13458
嚓 13440
▁pi 13424
▁tim 13414
▁via 13411
▁text 13400
谕 13398
▁sina 13386
▁esp 13382
蕙 13373
谑 13372
shin 13360
▁fan 13355
湮 13348
▁hot 13340
▁smart 13323
光碟 13323
札 13315
▁work 13313
熨 13291
▁bad 13272
蚓 13270
邸 13256
蛆 13254
卞 13253
浣 13251
蓦 13246
笆 13235
搭乘 13226
螳 13215
躇 13210
▁doctor 13176
懑 13176
大丈夫 13167
▁za 13160
▁sk 13158
踌 13149
ware 13141
彗 13141
ra 13140
▁wid 13137
▁service 13123
袅 13121
▁city 13108
会晤 13107
蜷 13107
▁money 13075
gp 13068
路透社 13064
爻 13050
lie 13032
▁pap 13032
涝 13026
▁chi 13023
笠 13016
桨 13003
moon 12969
ng 12966
蛰 12954
▁xi 12952
hub 12951
贸易战 12944
▁access 12930
捋 12917
▁year 12913
獗 12913
▁ng 12906
癫痫 12895
奄 12894
纂 12880
魇 12872
病患 12858
瞰 12796
蚯 12796
▁view 12794
蓟 12786
讴 12779
卅 12772
▁run 12747
▁sata 12741
筠 12734
▁add 12719
▁del 12715
旳 12708
蚝 12691
拉斯维加斯 12680
▁wang 12676
▁boys 12659
cad 12651
▁sv 12597
扈 12575
▁down 12574
阡 12564
叭 12561
涪 12554
▁jar 12553
▁kv 12540
▁peter 12528
庾 12526
▁now 12500
缎 12483
淞 12481
薏 12476
胱 12469
▁mer 12447
柬 12444
▁summer 12427
榈 12402
脍 12390
▁string 12387
▁zara 12375
▁zip 12367
恣 12355
荏 12338
▁have 12336
▁mobile 12332
琰 12330
▁yg 12329
捺 12320
欸 12308
岷 12297
▁sl 12273
胯 12258
▁too 12232
浜 12224
锲 12217
本网 12211
糅 12202
咨 12201
蜥 12201
▁check 12200
铬 12196
赊 12195
▁per 12194
夙 12193
崂 12181
偌 12165
婢 12132
▁hen 12123
铐 12123
缮 12121
褂 12109
攥 12108
台中 12106
▁af 12097
擀 12095
▁au 12088
抿 12070
▁toe 12068
▁qe 12055
入院 12054
骥 12052
辘 12045
lina 12042
▁sir 12030
et 12028
何故 12017
▁west 12014
螨 11999
馏 11995
耦 11994
les 11988
▁god 11988
▁way 11987
▁ri 11981
cho 11973
崴 11971
鬓 11955
ep 11936
▁dance 11926
▁vivi 11925
鸢 11918
身分 11910
▁wind 11903
▁jazz 11900
嬅 11890
▁iu 11887
▁ut 11876
丕 11876
幡 11876
瓯 11876
鞘 11870
bf 11848
万人次 11819
臃 11791
▁let 11785
csol 11779
餮 11779
殖 11760
癸 11747
note 11737
帛 11729
天候 11725
枰 11716
瘀 11716
漕 11707
鬟 11707
婺 11698
饽 11696
▁heb 11694
兖 11689
栎 11682
匾 11671
笈 11660
▁smile 11645
骡 11636
跎 11630
▁nasa 11629
鼬 11612
浚 11602
▁ending 11598
烬 11598
摞 11588
ler 11579
der 11575
姝 11552
mp 11550
▁first 11543
棣 11539
hl 11535
钜 11535
rd 11525
mon 11519
▁joy 11507
▁lucky 11498
▁oled 11496
la 11485
▁girls 11485
忿 11484
北海道 11483
荨 11483
犒 11461
咤 11455
磺 11450
▁pu 11447
婵 11446
琍 11446
塾 11424
十九大 11415
tk 11403
耙 11388
▁bra 11381
▁news 11381
疱 11371
▁copy 11369
▁mh 11367
莠 11365
▁ef 11358
▁sweet 11358
st 11352
壑 11332
骰 11324
儋 11323
▁ir 11320
醺 11312
沱 11307
xa 11304
▁easy 11304
眈 11297
犟 11277
通勤 11260
▁ella 11257
保育 11256
▁shine 11241
央视网 11236
沅 11229
烃 11228
land 11223
▁science 11219
▁where 11217
糠 11216
▁kell 11209
hhh 11204
ia 11197
▁abs 11190
▁tai 11189
▁yi 11183
钣 11168
蹩 11155
▁tao 11146
▁fifa 11141
▁off 11140
ff 11134
鸵 11116
岌 11106
弋 11106
▁uu 11092
雹 11085
涎 11079
▁jump 11071
骐 11062
yo 11055
▁frank 11048
cloud 11044
高雄 11043
▁set 11024
▁ever 11023
ard 11022
戬 11012
郫 11010
▁null 11008
哧 11000
▁main 10994
茱 10972
rx 10958
▁talk 10954
▁local 10948
cat 10947
▁map 10945
▁back 10934
蹂 10922
袂 10921
▁user 10920
赅 10918
▁ya 10914
▁ug 10903
由於 10896
酰 10888
▁update 10884
▁fashion 10877
▁business 10855
伱 10855
蜈 10846
廿 10844
hop 10841
睢 10840
淅 10829
pec 10803
蕃 10802
帼 10796
徉 10787
樵 10780
罔 10780
▁long 10776
▁print 10772
鄞 10771
颦 10767
smith 10751
▁cat 10744
全面深化改革 10736
福祉 10728
▁visual 10725
搐 10722
徜 10710
▁bh 10706
▁rich 10705
bert 10704
▁honey 10701
煦 10701
躏 10675
▁act 10671
姊 10670
▁see 10659
荞 10650
铆 10634
镂 10630
▁make 10609
弑 10609
▁ih 10599
▁cet 10597
▁cho 10586
▁中新网 10578
▁book 10572
鹜 10570
涿 10568
唰 10558
▁player 10530
▁state 10518
罄 10513
铣 10509
晌 10505
▁here 10504
焱 10502
瘴 10493
▁story 10478
cket 10470
窿 10468
啾 10467
▁park 10460
桎 10448
奘 10436
▁made 10431
ddy 10425
镑 10421
株式会社 10414
▁content 10412
▁value 10405
li 10387
▁die 10374
囔 10364
鳅 10354
fo 10344
浔 10344
蝌 10344
瀛 10339
冽 10315
▁come 10312
神社 10308
隍 10306
缄 10304
chat 10292
臼 10287
潺 10279
岖 10277
趸 10267
htm 10266
渚 10265
谟 10261
钨 10244
▁post 10227
狞 10226
▁select 10223
嫔 10215
偃 10212
祢 10211
妲 10209
▁white 10201
▁jen 10199
梏 10197
赈 10196
涣 10181
▁title 10168
▁pre 10159
蹶 10143
▁cas 10142
▁io 10135
▁pad 10132
蚪 10132
skt 10108
渥 10104
nie 10091
颍 10087
孺 10082
board 10072
key 10071
寮 10067
▁take 10054
傣 10049
时时彩 10043
疵 10040
蔺 10037
hh 10035
day 10025
▁shop 10022
帚 10018
▁ly 10016
time 10008
▁raid 10001
腱 9999
佢 9998
堑 9989
杳 9980
▁sr 9971
ice 9953
▁ram 9953
me 9948
▁ag 9948
▁ei 9936
撅 9924
▁maya 9921
xia 9903
▁ngo 9901
▁very 9900
▁beautiful 9889
kevin 9873
羿 9872
野菜 9871
▁dia 9868
▁gu 9868
嬴 9853
徵 9841
工作坊 9838
邬 9838
原住民 9831
▁div 9829
桢 9829
鳝 9828
俚 9812
喏 9800
瞠 9800
孑 9797
暹 9780
纣 9757
滦 9749
锏 9727
▁nick 9712
▁col 9702
▁nano 9692
鳗 9690
jm 9679
睽 9679
ning 9675
▁hero 9675
op 9674
挛 9674
▁ide 9662
pper 9660
▁ray 9658
鳍 9647
苹 9635
▁report 9627
蟾 9602
琏 9598
箩 9590
罂 9590
▁dy 9588
▁adam 9570
箔 9567
纨 9560
漉 9548
work 9535
lice 9530
yahoo 9524
晤 9522
▁error 9515
▁index 9515
▁has 9503
▁right 9502
娣 9502
毡 9502
痨 9499
▁leader 9496
▁seven 9496
稷 9489
珏 9487
▁last 9480
hang 9477
皎 9474
▁two 9469
空港 9453
▁eos 9447
cia 9444
▁color 9435
叟 9432
汞 9430
▁tho 9429
▁fuck 9426
▁hao 9425
徕 9423
▁enjoy 9422
榭 9401
▁job 9398
▁hey 9397
怆 9395
▁pink 9393
镕 9388
▁tl 9385
裨 9382
骜 9381
▁got 9378
醍 9376
锭 9375
▁design 9374
▁media 9365
width 9360
敝 9344
嵘 9340
▁size 9338
▁dw 9337
▁action 9335
▁gal 9321
虱 9319
▁next 9313
睑 9310
rah 9307
搔 9288
▁walk 9272
▁log 9267
瘙 9258
▁keep 9255
自体 9244
▁lost 9243
半分 9243
囿 9240
臊 9234
▁vol 9233
踞 9228
娑 9226
▁session 9220
si 9219
篓 9196
蟠 9193
▁well 9177
痉 9177
噼 9172
惴 9166
番号 9163
蜴 9159
▁ime 9157
骅 9138
潸 9137
▁uzi 9126
▁art 9122
▁flo 9115
貔 9114
仞 9109
珺 9107
恻 9102
▁bob 9095
▁tips 9089
iam 9087
▁kate 9085
狰 9079
玑 9076
▁cy 9073
fs 9070
▁ova 9069
▁was 9061
蔫 9059
jl 9054
鞅 9052
▁radio 9050
mpa 9043
砝 9027
镭 9023
捻 9017
唷 9016
唑 9008
莒 9003
芍 8991
▁admin 8980
▁secret 8978
ki 8972
re 8972
攫 8956
峦 8949
鲲 8941
徇 8938
泞 8936
▁flag 8935
▁gem 8935
缨 8934
砂糖 8928
铀 8915
貅 8914
▁bla 8913
▁core 8908
▁dk 8907
▁return 8906
▁old 8904
▁apa 8902
嚒 8898
ssica 8896
嘹 8896
▁unit 8895
踱 8885
潞 8884
jp 8883
▁never 8871
佗 8863
晔 8860
松山 8857
若您 8854
焯 8851
衲 8845
癞 8844
参加者 8841
▁tab 8838
跺 8836
遏 8832
▁geo 8824
熵 8811
孵 8810
▁stan 8804
蚣 8803
全面建成小康社会 8802
蝗 8798
▁pen 8797
▁ry 8788
厝 8785
▁apk 8777
▁lisa 8777
▁kt 8775
▁find 8774
▁light 8764
▁when 8764
▁winner 8764
▁friends 8762
ham 8759
痧 8749
▁host 8744
▁mic 8741
璟 8738
▁sing 8721
way 8718
▁bili 8707
▁voi 8707
▁tr 8705
▁little 8691
▁kar 8662
ffa 8658
▁beta 8657
妤 8656
淬 8656
▁bj 8654
▁idol 8647
net 8644
醐 8644
ther 8641
篝 8637
don 8635
茴 8627
痂 8620
▁leo 8590
▁form 8583
▁mad 8572
▁yeah 8567
mos 8564
簪 8513
▁fl 8509
▁ken 8505
斛 8494
vis 8491
▁fighting 8481
笺 8471
谀 8467
ast 8463
腚 8451
楔 8443
膈 8438
▁magic 8434
▁fun 8433
▁start 8433
fn 8425
▁juli 8422
垠 8418
吮 8415
绡 8406
黝 8404
bili 8394
▁green 8393
窈 8392
▁gap 8385
▁tu 8381
昇 8375
甬 8372
跚 8370
▁der 8367
▁rar 8351
lin 8341
蹒 8312
▁gai 8304
阈 8292
鸾 8291
袤 8289
▁dog 8281
手作 8275
sco 8260
ers 8255
濠 8252
cu 8250
▁tag 8227
▁mars 8202
啕 8182
▁after 8180
淖 8175
囱 8174
▁water 8167
▁andre 8166
藉由 8165
▁ver 8162
che 8161
罡 8154
蛐 8151
ek 8144
▁fate 8144
▁par 8141
▁az 8138
伢 8130
剐 8130
ibo 8128
▁spark 8123
▁voa 8122
shell 8118
▁marc 8110
ah 8107
侗 8106
皑 8104
瀑 8101
颧 8101
蜒 8099
phi 8096
ward 8073
筵 8065
▁share 8056
涸 8055
霎 8052
骊 8052
▁+ 8050
抡 8049
逵 8049
▁administrator 8047
han 8043
▁cookie 8028
hu 8027
饷 8025
▁mine 8018
▁sub 7985
▁video 7983
於是 7977
▁dl 7970
abb 7955
柾 7955
叵 7952
uis 7949
▁soul 7944
砾 7943
▁jos 7934
vin 7924
侑 7922
牋 7916
菅 7910
ron 7907
▁bank 7903
▁which 7899
jing 7893
▁hit 7893
▁manager 7893
▁program 7891
pf 7889
▁prince 7888
▁sex 7887
fi 7886
佯 7881
▁solid 7876
泫 7874
槌 7860
蠡 7858
▁bir 7857
▁hy 7855
xx 7837
▁pan 7833
狒 7825
▁ud 7817
幄 7814
碚 7812
台北市 7808
eve 7805
▁pose 7805
嵊 7804
习近平主席 7791
谄 7780
lly 7773
杷 7770
▁double 7768
ico 7758
台南 7756
▁jane 7750
▁ban 7747
憩 7746
▁dar 7742
枇 7741
jun 7738
▁yang 7736
at 7734
尕 7728
劾 7720
▁switch 7718
▁ye 7702
梆 7700
汴 7694
杵 7692
pha 7662
看著 7659
ior 7654
▁elle 7647
▁quote 7624
▁nature 7623
呷 7616
映画 7593
▁ny 7592
hm 7587
sc 7582
缰 7578
▁people 7575
弼 7569
▁tw 7565
骞 7557
▁friend 7555
旮 7552
樨 7548
ine 7543
名前 7536
瓮 7522
郜 7519
掇 7515
▁brown 7504
▁han 7496
戍 7480
瞟 7476
苷 7469
ston 7468
▁fu 7468
觊 7464
rio 7463
▁research 7461
ks 7449
▁crazy 7449
▁head 7449
盹 7449
▁ati 7448
绾 7447
▁aja 7443
▁anna 7438
gmail 7437
dot 7429
▁under 7428
▁allen 7413
▁load 7409
▁cal 7405
▁block 7402
霁 7400
盂 7398
▁activity 7397
ling 7392
oo 7385
▁shu 7381
rge 7379
鄱 7379
▁false 7372
flix 7369
蜿 7359
觎 7351
▁uk 7350
▁mag 7349
ter 7341
▁family 7337
矗 7335
est 7323
踮 7322
bby 7321
堇 7319
ster 7312
新北 7310
▁try 7309
oc 7306
▁len 7299
旅舍 7296
▁flow 7283
▁center 7262
▁control 7261
▁snap 7260
邳 7258
拄 7251
▁table 7250
倜 7248
▁bv 7247
ure 7246
阆 7246
隼 7240
孪 7235
nese 7232
至於 7232
桧 7230
▁london 7223
▁eu 7219
▁jord 7219
▁site 7219
窕 7209
跶 7208
▁point 7205
▁know 7202
▁build 7200
▁public 7199
锺 7196
less 7195
▁oc 7193
痤 7184
▁btw 7178
擞 7177
次回 7169
彧 7168
琨 7166
cky 7157
傥 7157
▁nova 7142
▁sne 7142
菡 7142
碁 7134
▁push 7127
▁wish 7123
咁 7108
ol 7104
搽 7104
iel 7093
泠 7080
楹 7079
铤 7073
▁social 7067
▁nu 7065
ford 7062
▁river 7062
▁rub 7059
砼 7057
▁cam 7046
csi 7040
▁once 7034
掳 7033
▁cento 7032
nico 7021
啡 7019
疟 7018
蛹 7009
▁bin 7004
▁read 7002
▁cross 6993
咂 6993
荃 6990
lock 6977
▁sum 6977
rf 6976
▁sin 6976
▁always 6974
钴 6974
▁thank 6964
▁san 6961
筏 6958
纰 6958
▁cost 6954
蛎 6945
▁lyn 6934
舶 6931
溟 6930
咛 6926
point 6925
▁lock 6914
▁tid 6912
▁review 6904
蛳 6898
燮 6897
艮 6897
馊 6896
▁sexy 6889
阚 6887
硚 6885
▁mon 6882
▁bas 6880
▁help 6878
掣 6875
捌 6870
鲶 6859
▁victoria 6847
疸 6842
冼 6837
▁clan 6830
▁cod 6830
柘 6825
▁card 6820
▁recovery 6817
momo 6816
▁american 6814
暻 6813
▁cin 6809
▁while 6805
荥 6801
馀 6801
▁clo 6788
芪 6785
hen 6781
▁ball 6780
▁quo 6776
碜 6774
tes 6773
▁there 6771
▁chu 6768
▁wonder 6768
拚 6765
tive 6763
旌 6762
蟀 6760
璜 6749
van 6745
nia 6723
蝈蝈 6722
金利 6721
▁bri 6719
il 6715
▁opera 6713
醚 6704
▁cap 6703
垛 6702
▁ze 6701
▁oli 6699
箕 6694
镌 6692
▁about 6691
▁body 6687
▁yan 6684
▁sar 6680
侪 6679
cca 6677
▁ini 6673
▁sad 6672
唢 6672
鼾 6671
gie 6670
▁carry 6668
蔬果 6666
lp 6665
so 6662
▁market 6656
chy 6643
▁memory 6643
勐 6636
jk 6631
蚱 6629
坳 6624
▁um 6623
▁path 6619
▁sand 6619
鄢 6616
旎 6611
ls 6599
铵 6593
▁sheet 6590
▁date 6589
nya 6588
晁 6586
▁gan 6585
今次 6585
▁jin 6580
▁oz 6573
▁ru 6568
麾 6566
▁pia 6561
讼 6558
kin 6547
▁management 6542
绔 6533
▁input 6532
▁thanks 6531
藉此 6523
▁od 6520
蟋 6519
nad 6517
▁modem 6511
会社 6510
▁break 6508
▁morning 6506
ion 6505
悻 6500
疝 6497
▁cold 6492
▁xo 6492
俸 6490
vy 6487
▁bet 6478
▁kim 6476
钼 6459
卟 6458
ha 6457
坻 6454
滓 6453
▁chapter 6451
雎 6441
翌 6440
ri 6435
▁band 6435
▁marketing 6433
▁ev 6429
旯 6428
谌 6413
▁explore 6412
▁network 6403
▁bull 6395
▁space 6394
bing 6387
▁alan 6379
▁earth 6379
硼 6379
▁close 6377
茯 6377
▁ul 6371
蜃 6370
驮 6368
▁count 6360
▁hun 6357
gui 6356
▁wiki 6355
髋 6343
炀 6340
新竹 6338
ee 6334
膘 6328
mond 6321
▁need 6319
▁ros 6318
▁include 6315
▁fat 6309
▁road 6306
撷 6305
blue 6304
ni 6300
▁great 6298
▁dz 6296
mix 6292
颚 6292
▁acer 6289
▁tra 6289
麝 6288
▁again 6285
kz 6280
旖 6280
▁else 6267
▁ky 6266
舛 6264
▁boom 6261
驸 6261
洵 6257
咲 6256
氛 6251
耒 6248
搡 6247
髻 6233
▁yor 6232
湎 6231
▁express 6226
▁source 6225
ips 6224
囫囵 6223
night 6221
om 6218
珩 6218
煸 6207
rita 6206
ey 6205
甯 6202
chel 6191
▁trump 6187
馗 6180
唛 6179
捱 6179
▁nas 6177
▁neo 6177
▁skin 6176
诘 6166
▁vocal 6164
▁vin 6161
珅 6160
mail 6151
▁account 6146
▁ob 6143
邺 6143
jo 6132
db 6131
▁hard 6130
▁base 6126
▁stop 6123
嗳 6123
麋 6123
菀 6121
▁mind 6115
▁final 6103
▁original 6098
藓 6098
▁qi 6085
cla 6078
瞑 6078
婀 6077
▁gw 6071
▁eg 6067
▁roll 6062
胫 6062
▁cand 6060
▁perfect 6049
摈 6049
焘 6049
溴 6038
ence 6037
▁str 6033
▁cover 6022
牒 6018
▁og 6013
for 6011
▁mua 6004
讶 6004
▁plan 6003
诨 5987
颉 5984
▁object 5975
▁sec 5962
蹙 5962
市府 5960
邕 5956
▁hill 5949
▁sos 5945
▁mos 5943
▁origin 5942
▁mor 5935
肓 5930
宓 5928
锹 5926
▁battle 5921
force 5915
有著 5913
▁yum 5903
cent 5899
剌 5898
刍 5887
▁emin 5882
郧 5882
鞑 5881
▁shopping 5879
毽 5875
辊 5875
▁zoom 5874
▁believe 5871
▁kn 5866
瓴 5863
▁guest 5858
遑 5858
鹑 5854
谲 5848
斡 5834
▁days 5827
蕨 5827
榛 5825
▁jul 5818
▁luck 5815
martin 5813
▁channel 5811
▁tina 5810
▁robi 5809
mo 5805
▁tree 5801
▁cup 5795
罹患 5793
樽 5790
hb 5788
▁want 5781
拯 5779
庖 5778
粼 5776
▁ota 5770
滢 5770
down 5764
stone 5758
▁age 5750
▁stay 5749
蜢 5741
▁monster 5738
蚩 5738
硪 5728
esc 5725
nce 5722
wn 5722
跄 5722
嗬 5721
伫 5717
砭 5711
衮 5705
垄 5704
嵇 5701
▁chan 5700
▁vita 5700
牍 5700
cer 5698
per 5692
fer 5681
踉 5679
live 5677
▁classic 5672
作成 5672
▁learning 5671
▁pas 5662
▁ikon 5659
鹈 5655
craft 5648
star 5647
▁sound 5647
town 5645
▁cell 5639
▁delete 5639
鹫 5639
bow 5637
via 5635
▁nk 5634
▁order 5633
獭 5627
觞 5626
盱 5624
▁sig 5622
名古屋 5618
nica 5612
▁disco 5612
wordpress 5606
▁raw 5606
▁full 5602
▁shadow 5598
▁breaking 5597
row 5594
▁ku 5592
鹄 5590
▁react 5586
湍 5578
▁room 5577
▁fall 5562
▁fr 5562
▁wy 5556
黠 5555
▁cali 5553
在於 5549
sher 5545
▁fish 5536
▁hua 5536
▁melo 5535
▁drama 5531
熊本 5531
萼 5529
▁sara 5527
sys 5526
▁anyway 5526
跛 5525
▁north 5524
岀 5520
鹕 5517
赝 5514
▁brand 5513
盅 5513
牦 5510
掬 5506
ph 5505
▁https 5504
鹌 5500
ger 5497
body 5495
▁cosmo 5495
嘢 5494
昭和 5494
砒 5493
▁better 5492
▁bot 5488
聿 5486
竽 5484
▁cao 5482
垭 5478
▁basic 5469
▁everything 5459
bridge 5456
怵 5454
map 5453
▁sei 5452
邝 5451
纾 5449
佃 5436
芃 5436
碴 5435
ary 5434
▁fast 5426
舀 5426
▁tang 5423
gi 5421
▁xu 5417
癫痫病 5414
饴 5413
玧 5410
蜉 5399
▁evo 5398
薅 5395
▁heaven 5387
game 5386
郅 5385
靥 5376
▁ape 5373
▁hope 5370
岫 5367
龋 5364
匍 5354
vi 5353
▁samsung 5350
▁org 5347
澧 5344
鲅 5343
▁wil 5336
ak 5329
hotmail 5325
▁deep 5321
行政院 5318
莴 5315
▁phi 5305
揄 5305
谥 5301
▁beauty 5296
ving 5295
pid 5286
ka 5279
rel 5269
牠 5263
▁xin 5259
▁finance 5253
侩 5253
芡 5240
辐 5240
▁bon 5236
▁eye 5236
讧 5234
蝼 5231
蛔 5230
眙 5226
▁hug 5225
邰 5220
腓 5216
▁mall 5215
▁brit 5214
draw 5211
怖 5211
碣 5210
pta 5208
沣 5207
▁byd 5205
▁law 5204
缙 5202
钯 5192
羟 5189
▁tia 5180
矾 5177
匐 5175
醴 5173
▁client 5168
呓 5165
埂 5164
▁zo 5155
rick 5147
ify 5146
ut 5146
▁bei 5141
▁sasa 5141
橇 5140
▁tj 5139
珐 5139
▁cca 5138
▁info 5138
猷 5134
xan 5133
特典 5133
綦 5131
嗟 5124
哏 5119
▁any 5115
墉 5113
hhhh 5110
豺 5109
▁clar 5105
立法院 5101
揶 5094
▁active 5089
▁spot 5089
dele 5088
▁exchange 5085
揩 5085
▁drago 5084
▁ava 5082
党的十九大 5081
矶 5079
▁sales 5072
圌 5070
▁wall 5067
▁yesterday 5067
▁self 5065
闾 5065
▁wat 5060
涞 5048
痢 5046
澹 5043
square 5042
▁safari 5032
ate 5027
▁cloud 5026
▁premier 5023
▁kan 5022
fy 5019
▁ez 5019
雉 5017
▁buy 5016
ings 5015
轱 5015
elle 5011
▁ann 5010
▁photo 5010
light 5006
柯文哲 5004
▁search 4999
ily 4993
荻 4990
扦 4987
豉 4982
▁gate 4980
焗 4978
琬 4975
joy 4971
▁chlo 4970
▁some 4966
咘 4958
sa 4953
胄 4953
▁sea 4952
▁award 4950
▁edit 4945
ncy 4935
昴 4933
▁ay 4930
郦 4929
氙 4922
com 4920
饯 4919
贲 4915
▁den 4913
ku 4909
▁follow 4909
沵 4909
砧 4903
ina 4902
▁enter 4899
▁tell 4898
灞 4897
鳕 4897
佻 4894
sper 4893
▁fair 4893
▁bil 4885
▁ten 4883
id 4880
rr 4874
聩 4872
▁vie 4869
▁blo 4864
肱 4864
▁micro 4859
开奖结果 4847
面倒 4845
▁mode 4844
▁doing 4841
▁whatsapp 4833
湉 4833
▁food 4832
▁hele 4831
次第 4826
钒 4824
▁season 4815
let 4814
▁global 4813
仃 4812
well 4811
▁zi 4811
ov 4807
殓 4801
尻 4798
鲈 4790
▁infinit 4783
啜 4783
▁tour 4778
噌 4778
沏 4775
hong 4771
人材 4771
nder 4761
▁ang 4761
▁pic 4749
▁kh 4744
▁gold 4738
▁drive 4736
die 4735
ap 4734
囍 4729
孱 4726
▁price 4721
巽 4719
蓁 4717
name 4711
垃 4710
▁international 4706
龅 4705
ubi 4690
▁boost 4688
稔 4686
▁boa 4685
▁sch 4685
tz 4684
▁gear 4683
恸 4681
▁dom 4680
ris 4676
澍 4674
嘣 4672
徳 4672
▁jun 4670
ti 4667
ald 4663
▁snow 4661
立委 4661
倏 4659
scott 4658
▁special 4658
▁simple 4657
▁prime 4656
vil 4655
▁three 4653
rav 4651
▁fit 4651
▁sus 4651
▁上一篇 4649
▁times 4648
俎 4643
镣 4643
涐 4641
氲 4640
▁gossip 4636
啫 4635
懋 4635
▁thu 4627
▁lover 4625
▁street 4624
呤 4624
namespace 4621
箐 4617
cas 4615
▁study 4615
▁kol 4611
耷 4611
▁alone 4605
▁change 4605
▁japan 4605
祚 4605
怄 4601
燊 4601
▁num 4599
▁five 4595
▁request 4591
▁pac 4587
▁hand 4586
聒 4586
儆 4585
up 4579
新宿 4576
▁student 4572
枞 4570
▁future 4568
▁connect 4563
痱 4563
hy 4562
▁mother 4562
▁version 4562
▁button 4561
忖 4560
焙 4558
▁maybe 4556
wend 4554
▁sense 4554
▁copyright 4553
lulu 4552
▁zone 4552
▁left 4550
鹂 4550
ca 4549
ars 4548
▁hub 4548
▁presentation 4545
▁match 4544
▁lie 4542
▁drop 4534
▁mw 4534
▁because 4533
▁baza 4526
氤 4524
▁today 4518
▁metal 4514
vod 4513
rie 4511
▁men 4510
▁our 4510
鸩 4510
▁kill 4506
▁ada 4505
▁funk 4505
feat 4504
璎 4503
▁away 4502
面接 4502
▁linda 4500
哐 4500
▁capital 4499
▁deadline 4492
褓 4487
nca 4484
藜 4483
station 4473
thy 4471
▁punk 4470
桉 4469
佷 4466
窠 4465
幔 4462
▁mis 4460
ona 4457
▁sop 4455
drive 4453
▁four 4452
▁crystal 4451
▁fred 4450
▁private 4450
▁put 4450
tor 4448
▁sket 4446
粳 4446
as 4444
▁span 4441
▁gigi 4435
▁lab 4434
▁robot 4433
铨 4431
rv 4429
砀 4429
蕲 4426
▁dark 4425
▁yoga 4420
都合 4420
▁repo 4418
style 4416
藿 4412
楣 4410
休憩 4405
roy 4404
谶 4401
铰 4400
▁force 4391
嚯 4391
▁moment 4390
▁loop 4385
▁item 4384
▁nothing 4384
昶 4383
▁stand 4382
簌 4380
▁birthday 4379
▁bus 4378
刽 4373
鸨 4372
蜇 4371
苣 4370
touch 4369
▁papa 4368
舷 4368
▁mia 4367
耄 4363
谘 4363
iams 4361
rb 4361
bug 4359
襁 4359
浃 4354
▁near 4352
銮 4352
▁yao 4351
pe 4350
蝣 4348
load 4347
▁language 4346
pop 4341
ken 4338
▁clair 4338
▁pho 4328
▁cache 4327
垚 4327
▁single 4326
洮 4323
▁discover 4319
code 4318
掸 4318
弭 4314
▁tok 4311
ac 4310
flower 4307
▁nec 4306
▁shit 4301
黒 4301
gan 4299
珲 4296
▁sai 4290
▁vue 4290
nni 4287
wis 4285
▁saber 4284
▁setup 4284
▁wood 4284
想定 4284
邛崃 4283
mg 4282
▁voice 4281
▁another 4279
▁every 4275
狍 4275
▁given 4270
▁please 4269
▁libra 4268
▁save 4264
覅 4263
um 4261
novo 4256
illa 4253
▁listen 4251
zol 4248
phil 4242
yon 4236
羸 4234
▁vui 4229
湫 4229
▁rob 4228
tex 4226
ye 4226
ze 4222
▁company 4222
▁tes 4221
▁canon 4220
着物 4220
▁cast 4216
▁wait 4215
nki 4212
▁tip 4210
▁framework 4209
▁kr 4208
ner 4207
秩 4206
臾 4205
▁gun 4201
▁mei 4200
▁much 4200
▁mye 4199
噫 4199
▁asia 4198
▁royal 4197
▁south 4188
▁ara 4187
▁tonight 4187
濂 4187
▁fantasy 4186
塆 4186
▁anti 4185
▁week 4185
▁hall 4181
▁vision 4181
讫 4181
▁stru 4179
▁franc 4175
隧 4175
▁ultra 4169
▁delta 4168
▁movie 4165
bern 4162
氩 4162
奈良 4161
▁wol 4159
睨 4157
pin 4154
麸 4152
▁brother 4145
敕 4145
朐 4145
▁lemon 4143
▁speed 4134
▁turbo 4134
嬗 4133
偈 4131
▁cor 4128
芩 4128
▁garden 4124
link 4122
▁kids 4122
苜 4121
▁stella 4120
指摘 4120
emon 4116
jf 4116
▁files 4114
▁machine 4113
▁usa 4113
罘 4110
▁omega 4107
▁into 4106
cks 4104
悱 4103
uren 4097
霭 4097
▁fresh 4096
▁letter 4095
▁lor 4090
育成 4089
kbps 4088
▁cook 4088
▁product 4088
邈 4085
▁audio 4083
▁his 4080
啲 4078
ington 4076
watch 4075
▁font 4074
鲛 4073
舫 4070
ue 4068
▁survey 4062
▁fed 4060
▁dir 4058
汩 4053
gov 4051
抻 4047
畈 4047
▁sean 4046
殚 4046
▁ana 4043
▁soc 4039
倌 4037
浠 4034
▁gr 4032
妯娌 4030
▁rog 4028
▁matri 4027
▁staff 4027
serv 4026
▁arra 4025
完善的售后 4023
锆 4023
▁history 4022
zzz 4017
▁kai 4016
▁collection 4014
峯 4014
澎湖 4014
堀 4011
kv 4009
▁val 4009
▁blank 4008
▁wife 4002
▁process 4001
▁iris 3999
▁port 3997
糍 3997
▁application 3996
▁ele 3996
疾患 3996
life 3995
氦 3995
镊 3991
▁give 3985
▁wrote 3985
ive 3981
▁blood 3980
eg 3977
▁twice 3977
▁kris 3976
▁tara 3975
oper 3971
▁ym 3971
than 3970
tus 3970
▁peace 3969
铄 3969
wood 3968
▁command 3968
zhi 3967
▁spe 3964
▁sugar 3961
谗 3955
▁answer 3954
钎 3954
▁gia 3950
▁zen 3950
溏 3944
uri 3941
飨 3941
nz 3940
龛 3940
▁wild 3931
尐 3930
樾 3929
▁klein 3928
咗 3922
▁other 3921
▁pack 3921
▁trans 3920
腴 3916
▁hotel 3915
砷 3914
枳 3912
▁turn 3910
萸 3908
▁child 3899
▁avril 3895
▁option 3894
▁technology 3894
蹑 3894
▁common 3893
膑 3891
▁place 3889
▁coffee 3888
▁track 3888
▁setting 3885
煊 3885
▁topic 3882
▁prefix 3879
▁island 3875
brook 3874
ation 3873
vo 3872
▁tsi 3871
▁side 3870
送信 3868
ixin 3866
nl 3865
诌 3865
▁being 3864
▁blues 3863
phone 3857
▁six 3857
矬 3857
▁joan 3856
谒 3855
▁hal 3854
郓 3854
static 3853
▁por 3851
滘 3848
▁person 3846
▁use 3846
耋 3844
汨 3843
▁package 3837
ren 3834
▁reddit 3834
▁virtual 3834
赳 3831
▁wal 3826
▁hea 3823
▁yin 3819
▁notes 3816
衿 3816
▁event 3813
▁balance 3810
▁move 3806
▁hl 3803
▁aq 3802
▁download 3802
平成 3802
▁information 3801
歙 3800
▁kors 3794
▁bom 3792
▁credit 3792
▁mel 3792
赓 3791
▁edi 3789
▁computer 3785
愎 3782
▁label 3781
▁xe 3781
蓿 3781
▁att 3779
▁bru 3779
▁unico 3779
姹 3779
mber 3777
▁psy 3774
瘘 3774
▁dev 3763
喙 3762
▁bay 3761
wan 3760
午前 3756
config 3753
ok 3751
▁meta 3751
埭 3745
岙 3745
鼹 3745
▁agent 3736
▁anne 3736
▁sho 3733
▁motor 3732
▁done 3730
ct 3729
▁pick 3725
dora 3724
▁acc 3724
▁task 3719
▁should 3718
maker 3717
卍 3706
▁nga 3705
▁general 3702
▁dead 3699
稞 3697
con 3694
蒯 3694
郯 3693
▁rand 3692
祉 3691
囗 3687
▁ter 3686
驷 3684
邡 3683
▁games 3678
啮 3676
▁fri 3675
▁crai 3674
rise 3670
犄 3670
▁sleep 3667
▁anders 3664
槛 3663
▁caro 3659
peri 3656
▁digital 3653
苋 3652
▁scar 3646
able 3645
▁partner 3645
蘼 3645
lita 3642
▁brun 3641
▁ren 3641
跟著 3641
mbi 3635
▁soft 3635
象徵 3634
▁found 3631
糸 3627
mani 3624
▁anni 3624
被害者 3619
彡 3611
▁diploma 3603
▁remember 3603
▁ber 3596
▁ming 3595
钏 3595
湟 3594
kg 3592
吡 3592
▁fight 3591
▁tech 3588
it 3582
▁then 3581
lion 3580
out 3577
葳 3571
▁miles 3570
▁yourself 3568
咣 3567
▁luna 3566
▁scan 3563
▁hans 3561
▁ring 3561
gl 3559
缱绻 3559
犸 3556
葚 3555
▁camera 3554
aron 3550
den 3550
▁blu 3550
耆 3549
▁script 3547
▁vintage 3547
view 3544
▁cro 3544
▁strong 3542
▁hann 3541
▁veri 3539
▁elf 3537
骈 3537
▁R 3536
锉 3535
▁promise 3530
畲 3530
ble 3528
佤 3528
鎏 3528
▁cur 3527
铊 3527
畴 3525
mer 3524
▁aid 3524
忤 3519
zhou 3516
▁tank 3515
腭 3514
▁grand 3513
俳 3513
镉 3512
▁boyfriend 3510
谪 3509
▁dec 3501
cole 3500
▁tri 3499
畿 3499
mor 3497
▁factor 3497
祗 3497
哝 3496
dos 3489
▁zoo 3486
砣 3484
▁human 3483
▁trip 3483
▁puma 3480
▁yellow 3479
▁loft 3478
ness 3477
ting 3475
▁est 3472
▁tea 3472
炔 3472
cher 3466
▁das 3466
赟 3461
▁mas 3459
▁orang 3458
▁ling 3455
殒 3454
潋 3453
▁camp 3449
▁feeling 3449
▁hj 3444
桅 3444
▁engineering 3439
▁catch 3437
▁duo 3436
▁bor 3433
酐 3433
▁visi 3432
蜍 3432
ko 3431
公尺 3426
▁mille 3422
phy 3418
▁town 3416
▁shir 3415
cal 3413
cker 3412
▁magazine 3412
▁reset 3411
荠 3411
娉 3410
噤 3407
the 3406
▁mol 3406
▁front 3405
▁sia 3405
▁sele 3404
褛 3402
颔 3400
▁mes 3399
tia 3397
▁guy 3396
▁write 3393
▁focus 3392
篑 3390
跖 3389
min 3386
膦 3385
jpeg 3384
▁cyd 3383
圻 3382
▁health 3380
▁casi 3374
nic 3370
悌 3370
眦 3370
▁nero 3369
▁temp 3369
▁xa 3366
貉 3366
▁kong 3365
ding 3362
▁kara 3360
▁menu 3360
▁short 3356
罹 3355
嘌 3352
夔 3352
鳃 3351
fun 3350
muse 3349
舸 3349
僭 3345
郢 3345
▁signal 3344
▁tools 3343
pping 3340
▁jam 3339
▁national 3339
▁pizza 3339
▁method 3333
仝 3333
陲 3332
▁message 3330
▁module 3328
▁tee 3328
▁jan 3326
唁 3326
▁film 3322
钕 3320
▁fy 3319
▁ur 3318
set 3316
▁meeting 3315
蓑 3311
ish 3309
▁still 3309
▁theory 3308
iec 3306
▁rade 3306
酩 3304
▁bella 3302
滟 3302
▁something 3300
谯 3300
黜 3300
▁coup 3299
▁reading 3298
▁reg 3297
工事 3297
酊 3296
▁eyes 3292
馕 3292
胛 3291
▁cafe 3290
獐 3290
mma 3289
▁death 3288
分野 3288
囹 3286
瓒 3285
▁dat 3283
wing 3280
tr 3279
▁security 3276
▁director 3275
▁land 3271
▁install 3269
▁viva 3269
▁kat 3266
擘 3266
int 3265
颢 3264
▁height 3258
▁desire 3257
flex 3255
▁yuk 3251
▁legend 3250
▁travel 3250
▁fede 3245
褴 3241
圄 3240
▁silver 3239
葡京 3239
▁daily 3238
▁financial 3233
犇 3232
▁tor 3231
▁palm 3228
偻 3228
劭 3228
囯 3228
▁mil 3226
▁series 3225
虬 3224
撺 3223
▁exp 3222
▁holo 3221
▁than 3221
lf 3220
teen 3220
ahi 3218
▁gala 3218
誊 3214
lamp 3211
▁him 3210
▁cash 3204
▁field 3202
▁join 3202
羧 3201
▁came 3200
▁rest 3200
接著 3200
mac 3199
▁sister 3199
▁click 3198
魍魉 3198
▁cute 3197
踽 3197
弢 3196
绶 3195
诤 3195
card 3194
▁pit 3194
裟 3193
len 3190
▁eleven 3190
▁ia 3190
▁support 3188
▁they 3184
▁il 3182
▁before 3181
▁bell 3181
▁amb 3178
▁section 3175
鬃 3170
蝰 3169
塬 3166
▁dangerous 3165
滂 3165
▁together 3164
翌日 3164
tner 3159
▁chic 3159
▁winter 3156
▁extension 3154
▁audi 3153
绌 3152
▁olay 3151
▁display 3149
鏖 3149
its 3147
lips 3146
▁glass 3144
峒 3144
旸 3144
▁member 3142
蜊 3142
cii 3140
ple 3140
▁were 3139
佝 3134
▁cult 3131
▁ham 3131
沢 3129
掴 3128
獠 3123
buck 3116
钡 3116
▁silence 3115
▁tool 3112
▁dot 3107
戕 3107
▁direct 3106
field 3104
▁personal 3104
▁fer 3102
煨 3101
闳 3098
▁sao 3095
荪 3095
▁pixel 3093
ssie 3091
yz 3088
▁education 3087
苕 3086
堃 3084
▁brain 3083
▁couple 3080
ffer 3079
wei 3077
啶 3077
▁did 3076
tiger 3075
icky 3072
▁sport 3072
蛭 3072
▁reader 3071
喺 3070
▁far 3067
▁inter 3062
▁services 3062
ctor 3061
▁begin 3061
舐 3061
rar 3060
▁daw 3059
▁nina 3055
▁slogan 3053
▁kent 3052
▁suprem 3051
▁everybody 3050
kki 3048
▁paradis 3046
see 3045
▁fine 3045
cr 3044
yuan 3043
▁hil 3042
嗄 3041
鲑 3038
▁surprise 3036
淦 3036
玳 3034
lar 3033
▁hat 3033
▁ready 3031
▁communication 3027
▁going 3026
▁isa 3026
▁quick 3025
▁cri 3024
▁shuffle 3023
靛 3023
橹 3020
▁下一篇 3019
圳 3019
tory 3017
▁tan 3014
瓤 3014
▁shock 3010
栉 3009
硌 3009
▁roi 3008
痍 3008
以降 3005
遒 3003
▁alien 2998
space 2994
▁pub 2994
挈 2994
yd 2990
▁standard 2989
▁bak 2982
▁someone 2981
▁welcome 2981
▁dei 2977
愠 2977
mov 2972
▁bag 2971
▁gle 2969
nis 2968
▁chat 2967
锗 2967
▁professional 2963
ir 2962
邨 2960
▁artist 2957
矽 2953
ith 2952
阪 2952
翳 2950
野球 2950
tel 2949
▁legal 2948
xi 2947
▁small 2947
虻 2947
孳 2945
▁myself 2943
▁device 2942
ggy 2940
ink 2938
▁butter 2938
▁nan 2936
袈 2935
▁rank 2934
▁gro 2933
札幌 2933
菖 2933
▁comic 2932
▁woman 2932
service 2931
▁children 2931
▁titan 2927
one 2925
苡 2921
觐 2921
煅 2918
sha 2917
▁country 2917
▁rip 2916
▁victor 2916
▁piece 2914
▁entertainment 2913
啻 2913
▁clear 2911
杈 2908
藁 2907
maha 2906
▁stage 2906
▁pok 2903
▁extra 2901
莜 2899
缳 2898
▁amazing 2896
▁vim 2896
▁kin 2895
▁levi 2895
▁fra 2894
▁shan 2894
▁learn 2893
蚜 2893
ful 2887
▁hehe 2887
诂 2887
▁holiday 2884
tin 2883
▁ref 2883
邗 2883
磡 2882
ppa 2881
铳 2881
▁math 2880
▁poi 2880
graphic 2879
zz 2878
▁years 2878
嵋 2878
濯 2878
茕 2878
▁arc 2877
▁intern 2877
揾 2877
lyn 2876
▁clean 2876
beck 2873
姘 2871
ral 2870
▁energy 2869
嶂 2868
痼 2867
ics 2865
蒹葭 2862
▁major 2861
▁poly 2861
fly 2858
▁teen 2857
▁words 2857
锝 2857
▁tomorrow 2856
▁pat 2854
部落格 2852
▁tata 2851
▁default 2850
boll 2848
girl 2848
▁nr 2848
cade 2847
▁fh 2847
▁ask 2846
捭 2845
喰 2844
▁create 2843
傩 2843
▁apr 2842
▁bao 2841
▁syn 2839
瘆 2839
瘢 2839
惇 2838
穿著 2838
菓 2836
ot 2835
▁sue 2834
▁aka 2833
▁mimi 2832
▁kl 2827
铱 2826
▁jobs 2824
檄 2823
car 2822
zy 2819
▁christian 2819
▁urban 2819
佞 2819
膻 2819
▁gone 2818
槎 2816
嶙 2814
▁mai 2811
▁swing 2811
猗 2811
▁judge 2808
▁tong 2807
步道 2806
▁board 2805
▁carti 2805
豢 2805
▁bone 2802
琮 2802
▁driver 2801
ys 2799
america 2795
▁pur 2794
▁shar 2794
囝 2794
bar 2793
moji 2790
笞 2787
▁round 2786
hap 2785
▁thing 2785
all 2783
ody 2783
ach 2782
麂 2779
▁lot 2778
阕 2778
禛 2777
鬣 2777
▁booking 2776
▁documents 2776
岘 2774
▁journal 2773
berg 2771
rk 2769
▁banner 2769
哋 2769
▁golden 2768
回覆 2768
▁cookies 2766
▁controller 2762
▁destin 2762
▁edition 2759
▁nov 2759
▁profile 2759
子供 2759
鲟 2759
trick 2758
jt 2756
rum 2752
▁kyl 2752
lo 2751
▁tam 2751
嚯嚯 2750
柞 2750
▁dun 2749
▁dynamic 2749
ship 2747
▁bear 2747
dre 2745
interes 2745
▁women 2744
▁address 2743
▁sol 2743
cra 2740
疽 2740
hai 2739
▁jon 2739
cro 2738
峋 2734
▁father 2731
刎 2730
▁outlet 2729
▁release 2728
忪 2728
xie 2727
▁tattoo 2727
逯 2726
korea 2725
▁hud 2724
祜 2724
缛 2723
粲 2721
巿 2717
爰 2712
▁trade 2711
wer 2708
犍 2708
媾 2706
蘅 2705
铡 2705
jn 2704
陟 2703
tumblr 2702
▁fund 2702
▁atom 2701
lip 2700
▁insert 2696
▁lang 2696
▁mur 2696
尛 2696
讣 2695
▁bingo 2693
▁bre 2691
▁hou 2691
▁connection 2690
▁analysis 2687
▁rate 2684
▁second 2683
▁circ 2682
囼 2682
姒 2681
▁lib 2680
▁modern 2680
▁cid 2679
▁cuba 2679
俟 2679
▁aus 2678
▁fin 2678
shirt 2677
cs 2676
疥 2676
▁filter 2674
▁gor 2674
▁hay 2674
▁gogo 2673
ture 2670
▁ant 2670
谡 2668
锱 2667
▁bry 2665
▁gho 2662
▁geni 2661
ro 2659
亓 2659
bie 2658
疃 2656
茌 2655
▁eco 2652
▁software 2652
llustrator 2651
▁gen 2651
磬 2649
黟 2648
bling 2647
▁wong 2646
瑁 2645
▁freedom 2643
gas 2642
▁would 2642
▁sama 2641
鐧 2641
忾 2639
崛 2638
▁reference 2637
born 2635
wikipedia 2635
噙 2635
▁pw 2634
vast 2631
kend 2629
喟 2629
▁apply 2628
▁leave 2627
manda 2626
▁taxi 2626
臬 2625
▁sur 2623
▁lawr 2622
霰 2621
▁gj 2620
▁goda 2620
崧 2620
殄 2616
夥伴 2615
▁sto 2613
▁mira 2612
non 2611
▁degree 2603
虢 2603
lash 2601
孀 2601
魑 2600
wen 2596
▁trouble 2593
▁must 2592
▁syd 2592
訇 2592
pher 2589
▁meet 2588
佶 2588
▁aug 2587
趵 2587
迤 2586
蹇 2581
oid 2579
▁economic 2578
▁total 2576
▁guitar 2574
▁license 2574
圪 2573
▁gift 2568
▁nic 2564
▁things 2563
挲 2561
ana 2558
chester 2558
▁hui 2558
菟 2558
▁bro 2557
唳 2554
牯 2551
▁cla 2550
▁bond 2549
▁gene 2549
▁ou 2549
umbi 2548
▁import 2547
伉 2547
tu 2546
阄 2545
▁excuse 2544
▁venture 2544
岿 2543
▁glo 2542
榫 2542
▁haya 2541
▁mom 2535
觥 2535
▁sms 2534
▁tik 2534
泮 2534
▁less 2533
▁password 2533
垩 2531
▁fre 2529
鍦 2529
panda 2525
▁ovi 2525
lk 2524
lay 2523
獾 2521
锴 2521
钺 2520
鲠 2520
渡假 2517
▁qu 2515
埙 2515
zone 2511
desk 2510
▁rec 2510
▁border 2505
▁angle 2504
锷 2500
▁spy 2499
▁sprint 2498
rush 2497
▁nit 2497
雒 2497
▁ellen 2494
▁mah 2494
骧 2492
▁question 2489
▁versa 2488
薹 2488
厩 2487
ura 2486
▁fantastic 2486
▁rim 2486
▁yun 2484
鹳 2484
▁advanced 2483
▁dick 2483
cing 2480
捯饬 2478
▁met 2475
嗮 2475
翦 2475
缢 2474
▁pig 2469
▁bw 2468
▁shot 2468
倨 2468
铖 2468
▁frame 2467
▁statement 2461
phan 2460
rg 2460
▁piano 2459
pm 2457
▁shall 2456
擢 2456
癔 2456
▁bal 2455
bble 2454
gaga 2450
ison 2450
瑗 2450
▁hon 2449
▁sep 2449
基隆 2446
▁inside 2445
mie 2444
▁tut 2444
▁holl 2442
曽 2442
stal 2440
▁kry 2440
咭 2440
吥 2439
▁ding 2438
▁exit 2438
unk 2437
凇 2437
tter 2436
垵 2435
嗪 2434
桠 2433
▁record 2432
浘 2432
wart 2431
渑 2431
玹 2430
嘭 2428
锑 2427
▁had 2426
▁teacher 2426
涠 2426
飕飕 2425
di 2423
▁april 2420
▁without 2420
頔 2419
龇 2418
▁culture 2417
妁 2417
稹 2417
骶 2416
▁console 2415
witch 2414
▁course 2414
锟 2413
▁storm 2412
▁station 2411
im 2410
▁reach 2408
thur 2407
public 2406
▁layout 2403
▁trick 2402
▁lux 2401
▁nest 2401
▁jie 2400
▁sign 2398
▁feature 2397
轭 2394
腈 2393
芾 2388
▁metro 2387
▁opt 2387
鞣 2387
un 2385
鲢 2385
髯 2383
ule 2381
▁sports 2380
verse 2379
钿 2379
垅 2375
▁gy 2374
▁hai 2372
锒 2371
▁chica 2369
bl 2368
▁pla 2368
癜 2368
▁capta 2366
▁tot 2366
chang 2365
▁sample 2365
嫚 2364
▁engine 2363
▁indi 2363
▁kay 2363
础 2363
▁stack 2360
▁waiting 2357
绉绉 2357
alphabet 2355
rus 2355
▁spi 2353
▁vel 2353
ex 2352
▁union 2351
art 2350
head 2350
▁door 2349
▁para 2348
苻 2348
▁ons 2347
▁res 2347
氵 2346
威尼斯人 2345
nor 2343
▁eat 2343
over 2341
桁 2341
鲷 2338
▁moz 2337
涔 2336
▁hyper 2332
▁disc 2328
郗 2328
gon 2327
hat 2327
燧 2325
睚 2325
des 2324
▁disk 2324
▁era 2324
uf 2323
▁score 2323
遽 2323
▁thread 2322
剜 2319
廋 2318
脲 2317
▁context 2315
ene 2313
▁sale 2312
▁sco 2312
▁episode 2311
▁speak 2311
诰 2311
癀 2310
ect 2308
▁pretty 2308
重庆时时彩 2308
vet 2304
▁rice 2304
镛 2303
ango 2299
▁cake 2297
▁alert 2296
▁resource 2296
曺 2296
妣 2294
齁 2294
玏 2293
▁relax 2291
▁weather 2291
鹞 2291
▁cop 2290
▁banana 2288
▁bright 2287
jh 2285
诳 2285
▁fei 2282
dding 2281
▁nor 2281
▁guide 2280
▁album 2279
▁objective 2279
vard 2278
▁does 2277
▁issue 2277
▁pure 2277
▁ocean 2274
ette 2272
▁sna 2272
▁stem 2272
釆 2272
tool 2270
▁hook 2265
▁kanye 2265
尴 2263
ola 2262
▁neil 2261
▁pace 2257
▁pis 2257
▁sod 2257
伥 2257
烔 2257
▁term 2255
▁des 2254
▁normal 2253
asis 2251
▁lim 2251
▁slim 2249
▁stock 2247
▁faith 2246
sse 2245
▁kao 2245
▁production 2245
ove 2244
mit 2243
鹧鸪 2242
▁experience 2240
蒡 2240
▁lei 2239
cou 2238
wie 2238
濉 2238
豇 2238
▁could 2236
▁many 2236
▁result 2234
▁duke 2231
▁trap 2228
▁timer 2227
圜 2227
▁crush 2226
▁hour 2226
檫 2226
▁paste 2225
畦 2225
▁ker 2224
簋 2224
▁train 2222
▁cole 2221
ology 2220
iza 2216
圞 2215
秭 2215
▁fool 2214
▁hus 2214
▁bless 2213
su 2211
▁pes 2211
全台 2210
淙 2208
睥 2208
analytic 2206
▁fal 2206
▁institut 2204
xy 2203
▁material 2203
▁ata 2199
▁arts 2198
▁tax 2198
ez 2197
嬲 2195
▁range 2194
▁press 2193
秣 2193
org 2192
崮 2192
痈 2191
▁ego 2189
▁concert 2188
▁format 2187
▁meg 2187
▁cream 2186
▁document 2185
敎 2181
▁living 2180
▁luke 2180
lotte 2178
妪 2178
bat 2176
▁shake 2176
▁been 2175
铧 2175
▁status 2174
rz 2173
▁lia 2170
▁gee 2168
夥 2168
俅 2166
▁weekend 2165
▁limited 2164
芗 2164
▁kern 2163
red 2162
▁colli 2156
▁messenger 2155
▁wine 2155
▁pull 2154
矸 2154
▁gang 2152
▁customer 2150
▁problem 2149
▁cel 2146
▁kit 2146
▁virgin 2146
鄄 2146
富邦 2142
戆 2142
▁pep 2140
査 2138
▁fac 2136
倬 2135
encia 2134
昰 2134
roc 2133
▁output 2131
▁russe 2130
pen 2125
quq 2122
陉 2122
当店 2121
▁luci 2120
郏 2120
lam 2118
bia 2117
▁medium 2116
win 2115
▁its 2114
啖 2114
▁deal 2113
▁senior 2113
▁area 2112
▁vai 2112
mount 2111
▁wear 2108
▁enterprise 2107
▁wedding 2107
sta 2106
▁speaker 2106
洺 2106
▁poker 2104
▁ear 2102
圾 2102
翀 2100
▁funny 2099
▁youth 2099
▁subject 2098
滞在 2098
visor 2097
骠 2097
▁born 2096
闱 2096
beta 2094
▁mega 2094
志工 2092
aspx 2088
tha 2088
▁response 2088
頫 2088
bbi 2087
▁define 2087
掮 2087
沆 2087
▁belle 2086
▁choice 2085
鹗 2084
刈 2083
cci 2082
▁kick 2082
芎 2082
▁matter 2081
▁coming 2079
nda 2077
乀 2076
窨 2076
▁tre 2074
鲵 2073
▁milk 2072
▁thinking 2072
贽 2069
▁trust 2068
粿 2066
▁same 2065
▁eng 2062
▁imp 2062
螯 2061
基於 2060
▁stream 2059
胴 2059
▁fake 2058
▁length 2058
▁cara 2056
ore 2053
▁contract 2053
▁gin 2052
▁dai 2050
垡 2048
茭 2048
ja 2047
▁insight 2046
inform 2045
▁unde 2045
▁kur 2044
残念 2044
▁mean 2042
▁parker 2040
▁launch 2039
▁pct 2039
▁seren 2039
▁working 2036
▁send 2034
椽 2034
醪 2034
▁safe 2033
▁aero 2032
▁chain 2032
▁creative 2030
塚 2030
祼 2030
▁schedule 2029
house 2028
ser 2028
www 2028
噘 2028
kira 2027
▁risk 2027
▁fusion 2026
洄 2025
vel 2024
恫 2023
▁astro 2022
僖 2021
tic 2020
镗 2020
ction 2019
ves 2019
▁apps 2019
▁feed 2019
菘 2018
tis 2017
徭 2016
燚 2016
逑 2016
▁sept 2015
▁mention 2014
亊 2012
▁whatever 2011
鹘 2011
beth 2009
fang 2008
▁foundation 2008
▁primer 2008
▁transfer 2007
gle 2006
▁performance 2006
茏 2006
蜱 2006
bel 2005
▁everyone 2004
▁wireless 2002
▁jude 2001
▁pattern 2001
畊 2001
垌 2000
gib 1999
nner 1998
▁current 1998
▁inf 1997
蓼 1997
篁 1996
韪 1996
▁central 1995
▁uri 1995
尓 1995
▁reason 1994
葺 1994
▁berke 1991
▁remind 1989
▁theme 1989
▁layer 1987
揠 1987
▁stu 1986
楸 1986
▁champion 1985
▁western 1985
ppy 1984
▁position 1983
嗫 1982
sen 1981
呋 1980
▁eh 1979
居酒屋 1979
bus 1977
player 1977
喑 1976
▁background 1974
▁mouse 1974
keeper 1973
zzy 1973
▁engineer 1972
▁grub 1970
stic 1968
▁location 1967
▁spirit 1966
▁workshop 1965
哞 1965
靼 1964
bra 1963
col 1963
殁 1962
imba 1960
▁interface 1960
igne 1958
旦那 1958
▁jeans 1956
僳 1956
吅 1956
▁community 1954
颞 1952
ian 1950
泔 1950
▁fen 1949
itty 1948
kea 1948
绦 1948
蠹 1948
▁dif 1946
惕 1945
vana 1944
▁charge 1944
▁ek 1944
▁lav 1944
▁nei 1944
▁sui 1944
▁gall 1943
▁hack 1943
stern 1942
▁lake 1942
▁works 1942
back 1941
▁dra 1941
▁images 1941
髌 1941
柩 1940
颛 1940
▁mirror 1939
▁condition 1936
▁also 1935
▁electronic 1935
溆 1935
▁ore 1934
隂 1931
彼女 1930
矍 1929
▁uni 1927
kura 1926
riel 1924
gil 1923
▁vera 1922
ada 1920
▁most 1918
甙 1918
▁lyd 1917
bour 1916
▁lite 1915
▁skip 1914
ground 1913
屐 1912
蓥 1911
▁picture 1910
▁maro 1909
啉 1909
瞋 1908
▁austral 1907
稗 1906
赉 1905
▁chance 1904
rca 1901
▁yen 1901
赭 1901
▁certificate 1900
嵬 1899
阊 1899
▁rule 1898
▁pom 1897
▁truth 1897
嘬 1897
▁luo 1896
丁目 1896
丷 1895
▁scene 1893
鱲 1893
▁assistant 1892
▁dre 1892
锕 1892
mobi 1891
essa 1890
omi 1890
崆 1890
笫 1888
cil 1886
stein 1885
▁gab 1884
▁solar 1884
trap 1882
▁laugh 1881
▁fix 1877
▁comp 1875
碇 1874
issa 1873
yl 1873
▁margin 1873
▁pai 1873
炷 1873
▁metalli 1872
昉 1872
gong 1871
lick 1870
▁entry 1870
▁development 1867
▁ting 1867
狷 1867
dies 1866
▁motion 1866
▁really 1866
饬 1866
▁ako 1865
grid 1864
▁retin 1863
▁nation 1862
▁pong 1861
▁shape 1860
ries 1859
▁tun 1858
▁fur 1857
▁policy 1856
hia 1855
▁planet 1855
hawk 1854
handler 1853
ttle 1853
▁quality 1853
黢 1853
▁guess 1852
▁hang 1851
▁random 1851
泺 1851
▁database 1850
▁natal 1850
▁based 1849
▁strategy 1848
page 1847
▁fragment 1847
age 1844
▁santa 1844
踟 1844
▁journey 1843
▁venu 1843
▁interview 1841
▁tie 1841
皴 1841
▁kati 1840
▁own 1840
莳 1840
蠛 1840
pic 1838
▁cheap 1838
▁desktop 1838
丅 1838
宅配 1838
▁pod 1837
鹬 1836
ils 1835
盥 1835
▁portal 1833
▁role 1833
槁 1833
bian 1832
▁feb 1832
▁tro 1832
珥 1831
fan 1830
▁pow 1830
hall 1829
ntium 1829
▁intro 1829
xo 1828
▁rod 1828
嚟 1826
▁ew 1824
箬 1824
鳟 1824
▁contact 1823
▁golf 1823
▁even 1821
▁wonderful 1821
▁mask 1819
▁investment 1818
屙 1817
缦 1817
pt 1812
▁prin 1812
▁property 1812
枋 1811
邛 1809
怏怏 1808
▁effect 1807
▁rey 1807
▁said 1807
sport 1806
▁screen 1806
pub 1805
绀 1805
▁login 1804
▁them 1804
▁dram 1803
恽 1803
val 1800
gger 1799
▁sno 1798
▁hol 1797
sk 1795
▁equi 1795
高雄市 1794
楽 1793
▁pal 1792
▁hacker 1791
▁miracle 1791
ller 1790
脘 1789
olas 1787
▁training 1786
诓 1786
isan 1785
髙 1785
▁middle 1784
fin 1783
men 1780
▁beach 1780
llow 1779
ssa 1779
▁talking 1779
▁okay 1778
茼 1778
lt 1776
▁premium 1776
uel 1775
▁grant 1773
瀣 1773
勖 1771
锃 1771
wg 1770
尅 1770
▁hair 1769
▁mau 1769
潴 1769
kon 1767
▁croc 1767
▁zion 1767
炝 1766
▁els 1765
▁lead 1765
鲇 1763
篾 1762
ji 1761
▁cyn 1760
▁macro 1760
▁pepper 1760
▁wake 1759
▁concept 1758
荸荠 1758
pro 1757
邪魔 1757
ific 1756
孖 1756
ky 1755
▁sure 1755
巜 1755
tran 1754
vas 1754
▁limit 1754
ell 1753
薮 1753
▁biz 1752
▁ind 1752
▁operation 1752
鳏 1752
▁ass 1751
gou 1750
▁mass 1749
▁apo 1748
▁kor 1748
▁mountain 1748
蕤 1748
▁keyword 1747
cafe 1744
isa 1744
▁spen 1744
▁tar 1741
▁department 1740
啐 1739
娈 1739
▁dress 1738
ipe 1737
▁lana 1737
▁pie 1737
嚄 1737
▁cle 1736
勰 1734
▁romance 1733
乂 1733
▁mission 1732
▁generation 1731
▁editor 1730
铩 1730
▁agency 1728
ern 1727
hi 1726
▁pri 1726
曱 1724
椟 1724
late 1723
▁august 1723
擤 1723
▁jak 1721
▁ark 1719
▁equal 1718
▁ran 1718
gers 1717
赧 1716
▁gramm 1715
▁sil 1715
right 1713
▁users 1713
萘 1712
霈 1712
ium 1709
▁festival 1708
▁pain 1708
▁domain 1707
昝 1707
▁books 1706
isk 1705
用於 1704
yn 1703
▁quin 1703
碓 1703
▁associa 1700
▁mum 1700
児 1700
▁missing 1699
薙 1699
vine 1698
wick 1698
掼 1696
ologi 1695
▁hurt 1695
嘁 1695
棂 1695
玦 1695
轫 1695
▁detail 1694
住民 1694
迳 1690
▁cree 1689
▁crash 1688
▁example 1688
▁meng 1688
▁practice 1688
plan 1687
vv 1687
芫 1687
vey 1686
聃 1683
▁gian 1682
▁writing 1682
voc 1680
峄 1680
艋 1680
baba 1679
yong 1679
▁wir 1678
iko 1677
wish 1675
▁curry 1675
镚 1675
▁costa 1673
▁honor 1672
▁building 1671
黩 1671
old 1669
▁uh 1666
case 1665
lele 1664
▁uku 1664
桡 1664
nsa 1663
▁pasta 1663
筮 1663
mbo 1662
▁lecture 1662
▁logic 1662
▁blas 1660
曩 1660
bank 1658
cking 1658
ville 1658
▁remote 1657
蓖 1657
▁kenne 1656
哂 1656
亻 1655
訾 1655
▁selle 1654
▁ari 1653
▁gloria 1653
▁aqua 1652
▁vod 1652
颀 1652
▁impossible 1651
horizon 1650
▁career 1650
▁forward 1650
▁gaming 1650
▁nich 1649
▁songs 1649
▁sort 1649
xas 1648
▁lind 1648
▁fail 1647
▁egg 1646
骝 1645
▁handler 1644
甾 1644
讦 1643
alter 1642
▁half 1641
▁fellow 1639
▁gent 1638
颛顼 1637
ella 1636
▁natural 1635
榉 1635
迄 1635
cess 1634
ms 1634
yy 1634
▁logistic 1633
▁march 1633
qui 1632
▁seba 1632
bash 1631
▁breath 1630
妊 1630
▁pool 1629
琇 1629
垓 1628
greg 1627
ml 1627
▁mart 1627
円 1627
ef 1626
▁mina 1626
▁plu 1626
▁rust 1624
岬 1624
羣 1623
mez 1622
寳 1622
▁qui 1621
葭 1621
bury 1620
▁police 1620
籼 1620
▁such 1617
ebe 1616
fone 1616
▁citizen 1615
▁silent 1615
▁elite 1614
▁rex 1614
疖 1614
偲 1613
墒 1613
▁carte 1612
▁rabbi 1612
▁escape 1610
▁tune 1610
椁 1610
椴 1609
lap 1608
▁through 1608
sey 1607
ming 1606
▁professor 1606
▁uw 1606
▁speech 1604
吔 1604
mouth 1603
孛 1603
▁vat 1602
rian 1601
▁clara 1600
▁making 1600
nna 1599
沤 1599
her 1598
▁vice 1598
▁developer 1596
弁 1594
▁route 1592
▁kun 1590
ndo 1588
埼 1588
nell 1587
▁favorite 1587
汊 1587
online 1586
tom 1586
enne 1585
bai 1583
▁bac 1583
tier 1582
nice 1581
▁dad 1581
▁med 1581
舂 1581
鞥 1581
dia 1580
▁beth 1580
mall 1579
▁fid 1577
align 1576
峤 1576
蹰 1576
▁traffic 1574
▁farm 1573
▁records 1573
缶 1573
▁ole 1572
廪 1572
▁graduate 1571
ami 1570
▁asa 1570
rta 1569
tek 1568
珙 1568
苁 1567
▁mada 1566
逄 1565
新北市 1564
▁article 1563
▁scale 1562
▁split 1562
韫 1562
▁ago 1561
ens 1560
kee 1560
white 1560
▁identity 1560
wel 1558
▁blade 1558
▁repeat 1556
枥 1555
▁rus 1554
▁court 1553
tone 1552
▁somebody 1552
沔 1552
▁bran 1551
▁sublim 1551
▁ein 1549
▁lili 1549
甑 1549
▁options 1548
▁bund 1546
▁patch 1546
▁tap 1544
hua 1543
▁cher 1543
qin 1541
▁defender 1541
frame 1540
▁voda 1540
ant 1539
▁accept 1539
▁electric 1539
逋 1538
▁burn 1537
髂 1537
eb 1536
pix 1536
诒 1536
sis 1535
▁highlight 1535
隗 1535
ung 1534
▁panel 1534
▁walking 1534
琚 1534
▁rook 1533
▁dub 1532
珪 1532
篪 1532
酞 1532
nga 1531
▁crew 1531
▁parti 1531
▁reality 1531
▁attack 1530
裾 1530
▁loc 1529
nut 1528
桷 1528
ance 1526
傈 1526
▁aux 1525
▁stuff 1523
篙 1523
▁permit 1522
媞 1522
鼋 1522
animation 1521
▁barne 1521
位於 1521
繇 1521
鄯 1521
▁aime 1517
▁porn 1517
凫 1517
▁direction 1516
垸 1516
▁eta 1515
▁jung 1515
ju 1513
▁around 1513
▁museum 1513
▁spec 1513
kle 1512
af 1511
ama 1511
feld 1511
▁strange 1511
vor 1509
▁interest 1508
io 1507
▁aba 1507
▁taste 1507
▁whom 1507
氐 1507
▁dol 1506
▁imagine 1504
king 1503
▁fact 1503
▁bonus 1501
埇 1500
▁campus 1499
僮 1498
屮 1498
chi 1497
esprit 1497
▁tags 1496
哙 1496
彰化 1496
蚬 1496
蹟 1496
▁pump 1495
mar 1494
side 1494
嚅 1494
怙 1494
炁 1494
埗 1493
翕 1493
▁kaka 1492
▁passion 1491
▁designer 1490
芘 1489
ede 1488
rett 1488
焓 1488
▁dual 1487
▁labs 1487
▁tele 1487
侉 1487
▁intent 1486
罅 1485
yer 1484
辇 1483
▁expo 1482
▁fare 1482
▁hana 1482
▁rem 1482
▁thi 1481
蕞 1481
ory 1480
▁pocket 1479
轸 1478
砗磲 1477
▁enough 1476
▁sie 1475
回目 1475
▁bun 1474
▁cou 1474
到着 1474
▁carbon 1471
▁ej 1471
悭 1471
▁porter 1470
▁swap 1470
唻 1470
▁startup 1468
flow 1467
▁fren 1467
▁hei 1467
笳 1467
钤 1467
vr 1466
▁universal 1466
▁vine 1465
埕 1465
anne 1464
▁folk 1464
sider 1463
▁wrong 1463
ashi 1462
▁volume 1462
▁slide 1460
▁storage 1460
跬 1460
graph 1458
蘖 1457
辻 1457
dog 1455
sing 1455
椹 1455
▁introduc 1454
顔 1454
ws 1453
▁pipe 1453
▁segment 1453
more 1452
▁diesel 1452
▁society 1452
▁consumer 1451
▁animal 1450
▁bia 1450
▁cent 1450
iu 1449
lack 1449
onto 1449
▁element 1449
▁plant 1449
垟 1449
▁rene 1448
糨 1448
▁attention 1446
▁forget 1445
▁rep 1445
▁component 1444
暝 1443
br 1442
▁bike 1442
绺 1442
ob 1440
▁flat 1440
茆 1440
馔 1440
▁invent 1439
▁relationship 1439
▁since 1439
▁hybrid 1438
▁trend 1438
丄 1438
劼 1438
▁happiness 1436
嶋 1436
瑷 1436
▁systems 1435
毎 1435
aine 1434
▁cheese 1434
▁fad 1433
▁actor 1432
▁demon 1432
箜篌 1432
▁hum 1431
庹 1431
锨 1431
▁asian 1430
▁scor 1430
▁foot 1429
嫒 1429
狎 1429
sti 1426
▁knowledge 1426
▁melon 1426
▁summary 1426
▁steel 1425
晷 1425
ru 1424
▁inte 1424
▁lovely 1424
▁musical 1424
▁voyage 1423
ile 1422
reid 1422
runner 1422
▁uno 1422
邙 1422
▁bath 1421
▁stra 1421
好康 1421
▁benefit 1420
▁slow 1418
梶 1418
▁cruise 1417
▁nes 1417
忸 1417
▁bois 1415
璘 1415
▁handle 1414
▁sta 1414
▁vid 1413
▁sham 1412
晩 1411
苄 1411
ardo 1410
蹚 1410
▁oil 1409
▁transform 1409
▁router 1408
▁dollar 1407
▁bli 1406
▁replace 1406
▁swa 1405
酆 1405
hit 1404
intelligence 1404
▁comment 1404
cover 1403
▁container 1403
list 1402
▁different 1402
▁kakao 1402
曌 1401
▁multi 1400
▁present 1399
▁yn 1399
浐 1399
tec 1398
▁poco 1398
▁trin 1398
▁fee 1397
怩 1396
lli 1394
▁drum 1394
▁eli 1394
vier 1393
▁growth 1393
▁exception 1392
▁custom 1391
▁fir 1391
▁saw 1390
庥 1390
llo 1389
▁bam 1388
▁bigger 1388
hulu 1387
俶 1387
ous 1386
▁soon 1386
莼 1386
fred 1383
钚 1382
fluent 1380
▁floor 1380
▁sup 1380
心配 1380
篦 1380
ik 1379
▁commerce 1379
▁ima 1378
▁draw 1377
▁hear 1377
▁juice 1377
▁lip 1377
▁partners 1377
▁abstract 1376
roid 1375
哌 1375
▁una 1373
瑭 1373
冏 1372
疴 1372
▁stupid 1371
訫 1371
▁owner 1370
▁fiction 1369
▁fost 1369
槑 1369
蛏 1369
▁demi 1368
cast 1367
▁mono 1367
▁produce 1367
rhythm 1366
▁encore 1366
▁doubt 1365
▁hahaha 1363
▁hours 1363
埚 1363
▁whole 1362
▁civil 1361
嘧 1361
嗰 1360
珣 1359
甪 1357
gs 1355
ur 1354
▁flori 1354
▁mood 1354
▁sala 1354
▁stat 1354
毖 1354
▁both 1353
箓 1353
ong 1351
▁ovo 1351
▁eight 1350
▁sal 1350
▁suite 1350
楦 1349
暌 1348
楫 1348
葑 1348
蝴 1348
bone 1347
dle 1347
▁ble 1347
箸 1347
ist 1345
▁chef 1345
▁trading 1345
鳜 1345
▁success 1344
▁tough 1344
钽 1343
▁lop 1341
▁gas 1340
▁each 1339
▁unique 1339
▁yol 1339
▁joke 1337
▁cancer 1335
▁figure 1335
▁pages 1335
纥 1335
thi 1334
wl 1334
▁argument 1334
杼 1334
郞 1334
▁tin 1333
▁dio 1332
▁won 1330
鲳 1330
cur 1329
▁mint 1329
▁flora 1328
台中市 1328
埸 1327
揆 1327
檎 1327
▁medical 1326
▁mot 1326
▁psycholog 1326
铟 1326
liz 1325
▁puls 1325
衾 1325
know 1324
▁moc 1324
sic 1323
▁corte 1323
凼 1323
luv 1322
▁nell 1322
hood 1320
tics 1320
▁laser 1320
▁chief 1319
▁grow 1319
von 1318
▁flu 1318
▁suit 1318
▁inner 1317
▁installer 1317
俬 1316
砦 1316
谂 1315
▁mal 1314
▁torrent 1314
▁yw 1314
姵 1314
筚 1314
▁mill 1313
xar 1311
龘 1311
▁fear 1310
▁merge 1310
镫 1310
▁continue 1309
▁nih 1309
▁chair 1307
▁broad 1306
玠 1306
ush 1305
loo 1304
▁cola 1303
stro 1302
塍 1302
孓 1302
▁cab 1301
▁waka 1301
▁month 1300
▁require 1300
齤 1300
hatha 1299
▁others 1298
▁tem 1298
▁valle 1297
▁blow 1296
▁corporation 1296
▁parent 1296
ica 1295
▁submit 1295
胍 1295
can 1294
valent 1294
▁template 1294
北京赛车 1292
▁pea 1291
▁chun 1290
恵 1290
▁loss 1289
▁race 1289
笤 1289
▁church 1288
▁donna 1288
▁important 1288
圝 1287
▁horse 1285
▁smo 1285
哚 1285
溱 1285
▁colour 1284
▁ich 1284
斫 1284
fia 1283
蕖 1283
nas 1282
▁monda 1282
▁officer 1282
樯 1282
淸 1282
锛 1281
镝 1281
龃龉 1281
嶷 1280
配信 1280
pore 1279
▁hollywood 1279
▁huo 1279
▁vampir 1279
▁hands 1278
▁otak 1278
谝 1278
mine 1277
▁counter 1277
竜 1277
rey 1276
▁bada 1275
搵 1275
鲱 1274
▁charm 1273
▁late 1273
▁quart 1273
▁som 1273
▁using 1273
▁vet 1273
sons 1272
▁penn 1272
▁atlas 1271
▁nel 1271
scope 1270
▁analys 1270
▁everyday 1270
▁nok 1270
趄 1270
▁marco 1269
ban 1268
▁gat 1268
▁casa 1266
▁gym 1266
▁ship 1266
謇 1266
xun 1265
zo 1265
▁flight 1265
戡 1265
蝮 1265
▁pun 1264
arrow 1263
幷 1263
淝 1263
▁until 1262
▁monitor 1261
摺 1261
▁ami 1260
chow 1259
xis 1259
▁ties 1259
ury 1258
vic 1257
▁campaign 1257
▁publish 1257
▁purpose 1257
▁cli 1256
▁critical 1256
薨 1254
躅 1254
▁broken 1252
▁mentor 1252
▁jag 1251
▁lena 1251
戗 1251
▁shin 1250
眞 1250
bell 1249
▁indian 1249
▁juni 1249
▁smooth 1249
▁syl 1249
▁podcast 1248
gar 1247
▁character 1247
▁margar 1247
▁platform 1247
笕 1247
ase 1246
▁maz 1245
okok 1244
▁lager 1244
▁nam 1244
▁primary 1244
▁rad 1244
铯 1244
飏 1244
▁ultima 1243
刿 1243
▁baile 1242
綫 1242
▁cele 1241
▁payment 1241
▁fel 1240
▁kir 1240
氡 1240
趔 1240
mist 1239
▁brenda 1239
▁planning 1239
▁reduce 1239
抟 1239
▁clip 1238
▁hor 1238
▁restaurant 1238
▁ser 1238
lia 1237
▁challenge 1237
堺 1237
荇 1237
蜘 1237
hic 1236
▁adapter 1236
▁author 1236
▁hamil 1236
骢 1236
lls 1235
▁knows 1235
▁terminal 1235
sty 1234
tle 1234
illusion 1233
▁description 1233
▁yr 1233
介面 1233
▁llo 1231
volution 1230
▁oy 1230
igan 1228
嫑 1228
▁olive 1227
菈 1227
▁thousand 1225
茔 1225
hun 1224
writer 1223
▁lai 1223
▁ride 1223
汜 1223
riana 1221
▁alternative 1221
▁skill 1220
▁mou 1219
雫 1219
高质量发展 1219
▁techno 1218
▁verge 1218
hora 1216
hv 1216
▁dove 1216
叒叕 1216
▁early 1215
▁emo 1215
▁salsa 1215
▁swe 1215
goda 1214
tune 1214
逶 1214
▁diff 1213
菽 1213
▁ong 1212
嚯嚯嚯 1212
▁bottom 1211
▁eden 1211
饸 1211
he 1210
▁olymp 1210
▁revolution 1209
mel 1208
▁spin 1208
▁roman 1207
阗 1206
杲 1204
瑀 1204
cco 1203
▁dim 1203
▁physical 1203
椐 1203
ray 1202
▁lex 1202
▁rider 1202
坭 1202
钹 1202
ception 1201
▁cycle 1201
▁romantic 1201
▁sell 1201
▁disp 1200
▁execut 1200
▁warm 1200
▁minute 1199
▁raise 1199
boo 1197
hin 1197
▁sit 1197
sby 1196
some 1195
犽 1195
▁bind 1194
▁minor 1194
our 1193
▁football 1193
▁mobil 1192
▁mraz 1192
昨年 1192
彘 1191
爨 1191
貘 1191
高校生 1191
kell 1190
sson 1190
liver 1189
▁academic 1189
▁hidden 1189
▁past 1188
▁tube 1188
bok 1187
▁toy 1187
ott 1186
▁gina 1186
収 1186
dom 1185
lega 1185
菸 1184
坩 1183
耨 1183
▁finish 1182
▁worth 1182
fire 1180
wise 1180
镓 1178
lera 1177
▁zai 1177
嫲 1177
炆 1177
utum 1175
▁solution 1175
荜 1175
som 1174
▁provider 1174
clan 1173
fried 1173
▁producer 1172
猢狲 1172
▁broker 1171
▁whose 1171
楝 1171
▁category 1170
philosoph 1169
▁few 1169
▁regi 1169
▁third 1168
瑠 1168
zimmer 1167
▁baba 1166
▁lounge 1166
胗 1166
镒 1166
gh 1165
ized 1165
▁bid 1165
▁pilot 1165
▁cruz 1164
▁temple 1164
▁dau 1163
▁flam 1163
▁crack 1162
▁effects 1162
▁khan 1162
汆 1162
mid 1161
▁association 1161
▁transaction 1161
wag 1160
▁holland 1160
▁rev 1160
礽 1159
bibi 1158
mini 1158
glas 1157
▁protocol 1156
怿 1156
澪 1155
▁damn 1154
▁lima 1154
▁prefer 1154
▁chill 1153
▁cinema 1152
氽 1152
萋萋 1152
▁cable 1151
▁poor 1151
▁ris 1151
兲 1151
▁treat 1150
瘊 1150
▁emotion 1149
▁lunar 1149
▁paint 1149
壅 1149
▁norma 1148
▁pris 1147
▁remove 1147
驽 1147
ere 1146
▁acid 1146
▁configuration 1146
▁anything 1145
橼 1145
ita 1144
▁hate 1144
▁marti 1144
▁criminal 1143
▁hart 1143
▁prototyp 1142
▁slave 1142
筋肉 1142
鼐 1142
jet 1140
▁casino 1140
▁pride 1140
▁seminar 1140
get 1139
▁consult 1139
▁tale 1139
苎 1139
叡 1136
▁against 1135
▁fax 1135
▁grade 1135
婳 1135
bird 1134
▁dock 1134
▁league 1134
▁strip 1133
mission 1132
萁 1132
▁executive 1131
lean 1130
▁export 1130
griff 1129
▁cancel 1129
▁studies 1129
峁 1129
wa 1128
▁pois 1128
▁testing 1128
▁used 1128
锶 1128
▁dana 1127
▁proposal 1127
ight 1126
▁drew 1126
▁heat 1126
▁zombie 1126
粝 1126
▁german 1125
▁photos 1125
▁saman 1125
▁widget 1125
佥 1124
萄 1124
踯 1124
▁average 1123
▁ger 1121
▁justice 1121
魃 1120
cord 1119
resa 1118
aj 1117
architecture 1117
▁firm 1117
舺 1117
tation 1115
▁complete 1115
▁distance 1115
▁kies 1115
肼 1115
蠍 1115
▁nie 1114
▁ume 1114
娭毑 1114
螟 1112
oj 1111
▁extreme 1111
burn 1110
iso 1110
▁aur 1110
▁emer 1110
▁strike 1110
卩 1110
▁als 1109
▁december 1109
▁euro 1109
歺 1109
蹼 1109
nium 1108
▁kristen 1108
▁register 1108
alo 1107
▁chung 1107
▁peng 1107
▁thriller 1107
asset 1106
ose 1106
▁bachelor 1106
▁chicken 1106
▁due 1106
▁region 1106
▁village 1106
illian 1105
▁chocolate 1105
▁initial 1105
▁programmi 1105
lett 1104
ndra 1104
hem 1103
▁corporate 1103
▁interesting 1103
▁portfolio 1103
▁twenty 1103
▁wheel 1103
▁visit 1102
馐 1102
bu 1101
▁economi 1100
▁evening 1100
camp 1099
gnu 1099
sburg 1099
▁audit 1099
▁twist 1099
amour 1098
ego 1098
▁hur 1098
▁panas 1097
绉 1097
辋 1097
猹 1096
璠 1096
镲 1096
▁behavior 1095
▁pon 1095
恹恹 1095
棹 1095
gly 1094
峩 1094
蒴 1094
tiny 1092
▁calendar 1092
lending 1091
long 1091
ya 1091
zona 1091
▁amor 1091
▁ist 1091
▁keyboard 1091
仵 1091
酢 1091
▁chip 1090
▁fucking 1090
瓠 1090
▁gain 1089
洹 1088
▁supply 1087
gress 1086
▁plot 1086
▁radi 1085
▁income 1084
▁lancer 1084
呒 1084
笏 1084
▁dig 1083
▁gentleman 1083
痦 1083
鬻 1083
▁million 1081
▁tanya 1081
▁trace 1081
泅 1081
铍 1081
▁compa 1080
▁november 1080
nk 1079
▁intra 1079
▁talent 1079
▁president 1078
▁stick 1077
歩 1077
笄 1077
pool 1076
▁trader 1076
▁century 1075
▁cre 1075
▁wallpaper 1075
▁heavy 1074
▁salon 1074
▁sana 1074
▁sensor 1073
face 1072
iv 1072
tage 1072
▁almost 1072
産 1072
颏 1072
aria 1071
▁liber 1070
nil 1069
▁safety 1069
芨 1068
妺 1067
杓 1067
杨欢 1067
ad 1066
卝 1066
blo 1065
▁finally 1065
▁lesbian 1065
桖 1065
▁espresso 1064
owa 1063
rs 1063
▁expect 1063
sy 1062
▁goal 1062
▁lean 1062
inter 1061
▁finder 1061
cm 1060
▁stories 1060
扽 1060
mark 1059
▁berlin 1059
▁refer 1059
▁vida 1059
豕 1058
liance 1057
▁backup 1057
▁ipse 1057
南投 1057
闩 1057
跹 1056
辎 1056
▁puzzle 1055
▁qual 1055
醮 1055
镔 1055
mons 1054
tra 1054
▁scientist 1054
▁serial 1054
ixi 1053
氺 1053
shay 1052
▁girlfriend 1052
▁mir 1052
▁popular 1052
▁wana 1052
▁render 1051
ora 1050
▁centre 1050
▁corner 1050
▁empty 1050
guan 1049
▁airport 1049
▁essential 1049
▁scholar 1049
▁weight 1049
▁appen 1048
栢 1048
碛 1048
妫 1046
posed 1045
▁tone 1045
cious 1044
▁ground 1043
▁mandar 1043
▁means 1043
▁prof 1043
▁prop 1043
mens 1042
▁lifestyle 1041
▁ses 1041
rne 1040
▁promotion 1040
minis 1039
ppi 1039
▁drink 1039
妗 1039
苫 1039
ace 1038
▁medicine 1038
▁notebook 1038
穰 1038
▁council 1037
▁forum 1037
▁impact 1037
▁satur 1037
▁symbol 1037
▁ik 1036
▁structure 1035
ric 1034
晸 1034
皲 1034
▁chart 1033
▁positive 1033
▁tren 1033
▁utili 1033
▁expedi 1032
赁 1032
ila 1031
▁liquid 1031
襦 1031
shire 1030
step 1030
sia 1029
ters 1029
▁fle 1029
rozen 1028
stance 1028
巛 1028
▁however 1027
▁sac 1026
▁scratch 1026
▁brett 1025
▁fixed 1025
dela 1024
▁coverage 1023
▁finger 1023
▁iam 1023
▁pair 1023
庠 1023
gad 1022
▁ticket 1021
▁values 1021
椋 1021
ide 1020
bey 1019
▁bluetooth 1019
▁foreign 1019
▁pitch 1019
xon 1018
▁clau 1018
▁paradox 1018
▁vu 1017
台南市 1017
uc 1016
▁fli 1016
桜 1016
骺 1016
洧 1015
逡 1015
▁pam 1014
ai 1013
ben 1012
▁interaction 1012
▁rac 1012
鸮 1012
胪 1011
▁hole 1010
硖 1010
iano 1009
rius 1009
▁treasure 1009
▁tru 1009
▁princip 1008
samba 1007
san 1007
▁niko 1007
萜 1007
ties 1006
▁failed 1006
▁marin 1006
▁fill 1005
▁pot 1005
▁secure 1005
▁wide 1005
洇 1005
sch 1004
eau 1003
▁enig 1003
▁kira 1003
lon 1002
▁operator 1002
▁rid 1002
蚧 1002
彼氏 1000
▁aber 999
thema 998
phon 997
▁alma 997
▁dalla 997
▁meme 997
▁sometimes 997
▁understand 997
js 996
▁laws 996
滏 996
▁higher 995
▁dur 994
▁flas 994
喹 994
▁babe 993
▁either 993
▁might 993
恚 993
骓 993
cut 992
▁nood 992
▁trek 992
仂 990
柢 990
rish 989
▁activa 988
丼 988
▁goes 987
▁sans 987
习近平新时代中国特色社会主义思想 987
湉湉 987
镬 987
瀞 986
▁cluster 985
▁innovation 985
▁knock 985
▁benchmark 984
▁shoot 984
nome 983
yeti 983
▁organization 983
榧 983
▁arena 982
檩 982
ating 981
▁demand 981
▁surf 981
婼 981
畀 981
荽 981
鹮 981
▁chaos 980
▁industry 980
▁lamp 980
▁measure 980
▁rent 980
ounce 979
▁blogger 979
▁complex 979
▁sick 979
▁economy 978
▁tur 978
media 977
▁alter 977
▁domino 977
鸷 977
sign 976
▁electro 976
▁pictures 976
▁rules 976
槲 976
ability 975
away 975
friend 975
▁coast 975
郾 975
quad 974
垴 974
当社 973
▁corp 972
▁ones 972
▁ratio 972
夲 972
ula 971
▁barbar 971
蟥 970
蚍 969
▁adventure 968
▁cart 968
frog 967
▁scheme 967
med 966
▁technical 966
ball 964
scribe 964
▁dare 963
▁dry 963
▁pisa 963
呔 963
cycle 962
焜 962
蕻 962
▁networking 961
▁salt 961
仡 961
▁blind 960
硐 960
bron 959
▁kali 959
▁models 959
▁sang 959
▁til 959
▁vii 959
bit 958
cha 958
鲭 958
ec 957
▁links 957
sion 956
猡 956
鹩 956
ons 955
pavil 955
timo 955
▁translation 955
▁vero 955
direct 953
iling 953
wed 953
▁signature 953
挹 953
like 952
▁extend 952
▁karma 952
lala 951
▁alle 951
▁hardcore 951
葶 951
様 950
澳门威尼斯人 950
璩 950
▁bol 949
▁memorie 949
▁coa 948
nja 947
苴 947
use 946
▁dome 946
▁glob 945
▁wale 944
跩 944
▁period 943
▁resume 943
tape 942
▁las 942
▁nia 942
ces 941
▁gum 941
砻 941
▁students 940
▁incredible 939
▁says 939
▁sic 939
▁trigger 938
▁mont 937
▁prep 937
▁stark 937
borough 936
sor 936
▁ohi 936
dol 934
gallery 934
ivan 934
▁grande 934
▁sull 934
pire 933
▁brist 933
▁cure 933
bre 932
▁tha 932
伺服器 932
base 931
ked 931
rva 931
▁offline 931
▁sola 931
褔 931
▁exam 930
嫰 930
邾 930
▁ceci 929
▁shoes 929
▁sting 929
逖 929
▁possible 928
▁gross 927
▁mio 927
帙 927
▁honest 926
殳 926
隈 926
bong 925
shield 925
▁classes 925
▁looking 925
氖 925
mm 924
▁eterna 924
愍 924
emo 923
nett 923
sie 923
▁coca 922
▁holding 922
▁repos 922
▁amo 921
▁coin 921
▁technologies 921
衽 921
▁esse 920
▁insan 920
▁klaus 920
▁creator 919
▁dame 919
▁montre 919
▁statistic 919
▁whether 919
丌 918
邴 918
▁drag 917
▁drug 917
▁respect 917
箪 917
诹 917
鲧 917
▁mana 916
▁various 916
殍 916
▁between 915
槊 915
▁courage 914
▁went 914
隰 914
▁psi 913
▁variable 913
loft 912
wert 912
▁chemical 912
蚨 912
lla 911
厍 911
牝 910
das 908
technic 908
▁balla 908
bes 907
俣 907
蒗 907
畹 906
▁decision 905
嬿 904
nton 903
ught 903
▁guys 903
▁meaning 903
▁sab 903
诮 903
▁division 902
▁kip 902
▁deb 901
▁throw 901
痫 901
送料 901
rite 900
▁bravo 900
▁large 900
沇 900
螭 899
▁dem 898
▁insurance 898
▁persona 898
ese 897
rix 897
▁ion 897
apos 896
love 896
▁gran 896
shop 895
▁anu 895
▁cause 895
▁quiet 895
hd 894
▁government 894
蒌 894
鸫 894
▁funding 893
ssy 892
▁pga 892
▁plugin 892
建物 892
铋 892
▁gli 891
fr 890
heid 890
▁hospital 890
疳 890
▁sever 888
郇 887
吽 885
▁browser 883
▁compose 883
lic 882
▁kel 882
▁pov 882
▁tac 882
▁wanted 882
峇 882
ille 881
und 881
▁dealer 881
▁gram 881
▁oral 881
▁medica 880
▁notice 880
▁struggle 880
旼 880
ified 879
▁yet 879
eld 878
▁comfort 878
▁seal 878
▁mani 877
▁states 877
▁todo 877
▁trim 877
▁except 876
苌 875
owe 874
tting 874
▁rosa 874
▁written 874
say 873
▁opening 873
欤 873
▁octo 872
焐 872
lse 871
pio 871
vie 871
▁brief 871
▁dal 871
▁mara 871
▁materials 871
喾 871
burg 870
▁anime 870
▁frost 870
▁wel 870
彀 870
碶 870
▁reaction 869
▁scientific 868
binder 867
▁banda 867
▁computing 867
▁sight 867
▁these 867
渌 867
▁difficult 866
▁perfume 866
▁triple 866
▁volatil 866
▁parallel 865
忄 865
氘 865
磴 865
▁afternoon 864
▁stel 864
隹 864
high 863
yle 863
▁fila 863
▁sti 863
濞 863
蓊 863
▁afraid 862
▁having 862
忝 862
郄 862
▁stein 861
▁tablet 861
铌 861
ier 860
she 860
▁reflect 860
▁resources 860
咣咣 860
氅 860
cliff 859
dt 859
▁bring 859
▁mere 859
uni 858
▁aile 858
▁basketbal 858
▁dialog 858
▁gel 857
▁specific 857
乩 857
坼 857
樘 857
▁thai 855
崀 855
蝾螈 855
fla 854
nan 854
uck 854
▁priorit 854
▁quan 854
▁outside 853
▁puppy 853
禩 853
▁saga 852
ria 851
wiz 851
▁flowers 851
▁optim 851
▁sor 851
谖 851
▁calling 850
増 850
tern 849
▁mali 849
spire 848
▁enti 848
▁tudo 848
gram 847
▁available 847
▁ascend 846
▁simula 846
啱 845
into 844
ox 844
rest 843
▁dinner 843
▁feedback 843
企画 843
卐 843
bull 842
tail 842
▁instant 842
捩 842
coop 841
xe 841
▁gund 841
▁later 841
▁raj 841
▁sen 841
▁verbal 841
ent 840
▁cartoon 840
pending 839
帑 839
揸 839
狛 839
▁cata 838
劢 838
landa 837
lun 837
▁bomb 836
▁inn 836
▁trunk 836
鲔 836
▁accent 835
▁gamma 835
▁nav 835
▁schema 835
▁soda 835
bound 833
heart 833
shib 833
you 833
▁maxim 833
▁makes 832
姮 832
thri 831
▁candidat 831
▁interactive 831
聼 831
蛉 831
▁buffet 830
曈 830
▁liv 829
▁meter 829
▁rational 829
▁ret 829
▁slip 829
pia 828
scape 828
▁convert 828
▁ton 828
▁ware 828
▁architect 827
▁concerto 826
▁expression 826
▁quest 826
ngkong 825
▁disabled 824
▁fame 824
囟 824
関 824
▁excited 823
▁guard 823
▁lac 823
yi 822
▁gravi 821
ala 820
▁negative 820
▁hid 819
▁hundred 819
▁teaser 819
andra 818
xel 818
▁shared 818
▁susi 818
▁residen 817
柊 817
炘 817
艿 817
部屋 817
tai 816
▁grego 816
▁hed 816
▁related 816
菰 816
▁recruit 815
蒺 815
黉 815
▁points 814
▁preference 814
▁upload 814
rice 813
▁sax 812
▁univers 812
帏 812
蛄 812
▁apartment 811
▁ise 811
▁latin 811
萩 811
▁india 810
▁unlimited 810
剡 810
▁compact 809
▁environment 809
▁nini 809
▁risc 809
腧 809
niki 808
▁coba 808
▁male 808
饧 808
owo 807
▁independent 807
▁npr 807
恂 807
注文 807
▁abi 806
▁semi 806
▁thought 806
寤 806
魈 806
bon 805
tys 805
荭 805
mont 804
rich 804
try 804
▁fruit 804
ug 803
▁ordina 803
▁plug 803
▁rights 803
▁awesome 802
▁fet 802
▁ideas 802
▁monta 802
▁phase 802
▁sla 802
嵯 802
槭 802
▁chips 801
▁panto 800
▁sounds 800
唵 800
titude 799
▁villa 799
阱 799
鳔 799
▁boat 798
▁kite 798
▁leadership 798
▁rather 798
▁telephone 798
▁und 798
雷射 797
▁moving 796
▁belief 795
▁bos 795
糌 795
▁mechanic 794
huan 793
mien 793
visible 793
▁cru 793
▁japanese 793
▁lance 793
煳 792
▁aki 791
▁bach 791
▁behind 791
▁lives 791
逦 791
pass 790
ugh 790
▁imagination 790
▁september 790
羰 790
proof 789
▁receive 789
▁somewhere 789
犭 789
ffy 788
▁collect 788
press 787
lis 786
▁gras 786
旃 786
▁tutorial 785
餍 785
fighter 783
▁chap 783
▁psycho 783
▁sii 783
▁blink 782
▁pest 782
ei 781
案内 781
篼 781
臜 781
hill 780
▁attribut 780
▁cita 780
绗 780
谰 780
noc 779
sus 779
tical 779
▁viv 779
蒹 779
bic 778
ches 778
▁mental 778
▁spo 778
▁spri 778
薜 778
銭 777
sex 776
▁zap 776
▁able 775
▁manifest 775
▁novel 775
鲮 775
novell 774
shi 774
▁alias 773
▁consultant 773
凊 773
吲 773
浈 773
馑 773
lds 772
▁fell 772
▁instance 772
▁rever 772
nez 771
▁cyber 771
苾 771
茑 771
谠 771
▁letters 770
▁liberal 770
▁maxi 770
▁pirat 770
▁remain 770
bal 769
ved 769
▁dating 769
▁properties 769
▁till 769
▁wit 769
▁choose 768
▁instrumental 768
奭 768
▁delivery 767
▁exist 767
怛 767
pik 766
▁colors 766
▁greatest 766
糁 766
黙 766
▁agree 765
缟 765
▁jolie 764
▁violet 764
亽 764
mate 763
venue 763
▁idiot 763
▁ill 763
ince 762
▁glad 762
ical 761
▁revenue 761
▁rin 761
▁synchron 761
錾 761
▁barcelo 760
▁comedy 760
▁laptop 760
word 759
▁moi 759
余裕 759
澶 759
纡 758
▁creo 757
▁straight 757
浉 757
伭 756
▁lag 755
▁soldi 755
▁though 755
洸 755
浯 755
柰 754
▁sole 753
烜 753
聱 753
iva 752
jah 752
llet 752
▁discount 752
▁items 752
▁mud 752
▁musta 752
▁slot 752
苗栗 752
ggle 751
hine 751
ade 750
port 750
shit 750
war 750
▁blanc 750
▁those 750
nte 749
▁assassin 749
▁beginning 749
▁tas 749
▁noi 748
缬 748
舖 748
致力於 747
蚵 747
▁loved 746
▁lunch 746
▁their 746
ovski 745
ult 745
▁glas 745
▁makeup 745
▁transport 745
▁vaga 745
▁yar 745
生徒 745
pit 744
ulo 744
▁pala 744
eter 743
▁along 743
▁famous 743
怍 743
ization 742
▁ola 742
▁reserve 742
▁regret 741
玘 741
bor 740
lem 740
▁gua 740
▁magnet 740
▁nemo 740
▁pierre 740
▁danger 739
▁rat 739
▁sou 739
▁advance 738
岜 738
gro 737
ies 737
▁tomato 737
hull 736
▁administration 736
▁pres 736
▁marina 735
庑 735
ged 734
water 734
xico 734
▁enabled 734
▁iz 734
有助於 734
缫 734
gry 733
▁above 733
▁generator 733
▁prison 733
▁tue 733
鲎 733
zer 732
▁busy 732
▁mong 732
▁prayer 732
▁skills 732
▁notre 731
▁sergi 731
洌 731
eo 730
▁clinic 730
▁imperial 730
▁saya 730
镞 730
del 729
▁tutor 729
沩 729
hist 728
ilor 728
mal 728
▁avatar 728
▁profit 728
▁gonna 727
枧 727
chant 726
▁rif 726
▁terra 726
埝 726
豸 726
馃 726
▁aya 725
rac 724
▁pian 724
肟 724
闇 724
home 723
rut 723
stre 723
▁pier 723
eth 722
illy 722
mart 722
▁alto 722
▁sav 722
▁teaching 722
蚶 722
靑 722
nci 721
toxic 721
▁conference 721
▁quattro 721
▁selection 721
▁speaking 721
岢 721
lling 720
sche 720
▁guardia 720
尒 720
▁adult 719
▁ski 719
▁trail 719
喈 719
▁lui 718
▁plane 718
▁tran 718
帔 718
熘 718
鸰 718
▁earn 717
鸬鹚 717
sed 716
▁bou 716
▁quiz 716
缂 716
tro 715
uter 715
▁kansa 715
笪 715
▁cui 714
▁folder 714
▁quarter 714
鸶 714
beat 713
▁affair 713
▁vien 713
宀 713
angle 712
▁ade 712
▁bolt 712
▁features 712
▁reports 712
哓 712
blanc 711
talk 711
▁comes 711
edd 710
▁protected 710
illion 709
▁aura 709
▁hem 709
俦 708
愆 707
溇 707
brew 706
iser 706
▁flor 706
▁gav 706
▁krist 706
▁playing 706
楮 706
▁pussy 705
妘 705
媪 705
jewelry 704
mite 704
aren 703
▁become 703
▁ode 703
▁shipping 703
▁steps 703
▁within 703
琯 703
馓 703
▁applied 702
▁hoff 702
庅 702
▁kitchen 701
▁minutes 701
氹 701
绐 701
轳 701
锜 701
▁fatal 700
▁mann 700
缑 700
tore 699
▁lees 699
嵛 699
aw 698
▁dice 698
▁sponsor 698
猁 698
aya 697
▁agreement 697
▁rib 697
▁compare 696
▁nos 696
▁summit 696
醌 696
▁hoo 695
▁sino 695
萏 695
谵 695
鋆 695
break 694
▁qua 694
▁suo 694
兎 694
辔 694
spice 693
▁neutral 693
▁tsa 693
chu 692
gate 692
▁emotional 692
cream 691
▁casual 691
▁virus 691
挻 691
眀 691
雩 691
fig 689
▁mile 689
▁upp 689
▁von 689
嫘 689
theater 688
▁aggressiv 688
▁happen 688
橛 688
疍 688
▁loo 687
鳐 687
hagen 686
▁beer 686
▁cannot 686
▁fiesta 686
▁pour 686
鉄 686
zel 685
▁finn 685
▁jer 685
▁winst 685
眭 685
▁charter 684
▁lat 684
▁often 684
▁orchestr 684
▁tui 684
amp 683
hut 683
mble 683
rique 683
thir 683
ud 683
▁cert 683
橐 683
猞 683
衄 683
embe 682
▁sung 682
儍 682
抔 682
猇 682
bios 681
gel 681
ppel 681
▁bottle 681
▁civic 681
▁commercial 681
▁european 681
▁friendship 681
berri 680
lux 680
▁citi 680
屣 680
稣 680
▁committee 679
lene 678
start 678
kita 677
▁caption 677
▁januar 677
▁nurse 677
▁spread 677
▁absolute 676
▁automatic 676
▁capture 676
邶 676
▁labor 675
▁stir 675
▁failure 674
▁tal 674
▁automat 673
▁bread 673
▁industrial 673
▁mystery 673
ngkok 672
raw 672
▁anywhere 672
▁assets 672
▁nata 672
▁vote 672
艄 672
▁avis 671
▁movement 671
▁selected 671
▁tired 671
▁tron 671
梿 671
砟 671
▁norm 670
夼 670
縻 670
izar 669
墀 669
▁difference 668
▁pleasure 668
▁bent 667
▁elements 667
▁kokia 667
▁pressure 667
▁ska 667
urus 666
▁delegat 666
嫱 666
涑 666
dam 665
ulia 665
▁numbers 665
▁sentence 665
炱 665
爿 665
▁merce 664
▁proc 664
▁servant 664
垧 664
檗 664
溘 664
褫 664
姫 663
nge 662
vania 662
彳亍 662
钍 662
awa 661
shore 661
witz 661
▁flux 661
▁uma 661
戢 661
潲 661
醣 661
boot 660
chor 660
rier 660
▁aap 660
▁expert 659
▁instrument 659
▁oop 659
▁products 659
讬 659
锔 659
▁pursue 658
▁retail 658
▁tio 658
呯 658
ally 657
patti 657
▁fran 657
▁ott 657
▁serious 657
嗐 657
▁pak 656
伈 656
齑 656
▁formal 655
▁listening 655
▁novo 655
榘 655
▁battery 654
▁formula 654
▁nail 654
鳎 654
ara 653
room 653
fall 652
▁dilemma 652
袪 652
▁soundtrack 651
▁trial 651
自分 651
蕈 651
▁edin 650
▁hoop 650
▁marriage 650
▁pause 650
▁progressive 650
憷 650
ito 649
▁animals 649
▁stereo 649
戸 649
郤 649
zio 648
▁abu 648
▁vill 648
▁viol 648
龢 648
worth 647
▁paid 647
▁puff 647
▁quantum 647
▁taip 647
氚 647
▁claim 646
▁distribution 646
▁effective 646
▁hom 646
▁itt 646
▁madri 646
▁progress 646
▁tempo 646
rari 645
▁converter 645
▁sera 645
▁sier 645
嫪毐 645
cti 644
rina 644
▁alb 644
▁rea 644
埵 644
europe 643
▁mila 643
▁parameter 643
▁tweet 643
翥 643
rail 642
▁crime 642
▁protection 642
瘿 642
ath 641
▁mela 641
回数 641
▁manual 640
今回 640
荑 640
荦 640
thro 639
▁healthy 639
伲 639
bin 638
tori 638
▁sexual 638
穑 638
阏 638
▁arms 637
▁movies 637
▁views 637
大阪府 637
奁 637
tta 636
▁precio 636
▁reggae 636
箧 636
are 635
rossi 635
▁vacation 635
▁silicone 634
樋 634
wich 633
▁growing 633
▁purchase 633
悳 633
▁gets 632
▁uy 632
疔 632
eze 631
▁opinion 631
薄毛 631
阇 631
▁grov 630
▁pancake 630
▁rena 630
▁streaming 630
▁survive 630
▁全站 630
砬 630
脔 630
raith 629
▁attitude 629
▁dab 629
▁ile 629
滹 629
纮 629
dova 628
yla 628
▁political 628
▁vendor 628
lector 627
▁alba 627
▁ideal 627
▁lova 627
▁masse 627
▁mob 627
柝 627
箅 627
▁although 626
▁bog 626
凵 626
棰 626
▁fog 625
▁grab 625
▁poet 625
翃 625
fe 624
par 624
thom 624
▁fabric 624
▁leg 624
atlan 623
hend 623
tato 623
▁awak 623
▁vale 623
teller 622
▁kala 622
▁theo 622
掾 622
oma 621
▁friendly 621
▁hin 621
▁tender 621
yang 620
▁billion 620
▁halloween 620
▁loan 620
▁sene 620
bella 619
lah 619
▁esa 619
▁guilty 619
▁nord 619
炟 619
▁bitter 618
▁broadcast 618
▁getting 618
▁innocent 618
慜 618
cken 617
pap 617
▁asu 617
▁cit 617
▁damage 617
▁exercise 617
▁television 617
▁theatr 617
闼 617
ata 616
trina 616
▁algorithm 616
主催 616
伧 616
▁ans 615
啭 615
fold 614
ici 614
orientation 614
▁definition 614
罓 614
sang 613
jour 612
otto 612
▁approach 612
▁fitness 612
▁hita 612
hammer 611
▁alarm 611
▁ital 611
蟊 611
▁mak 610
▁osa 610
▁amen 609
▁eros 609
▁smell 609
▁zou 609
醅 609
髡 609
razzi 608
▁bel 608
▁reward 608
▁scroll 608
僾 608
肪 608
舾 608
cor 607
ota 607
▁ske 607
▁capri 606
▁explo 606
▁inspir 606
▁repair 606
▁rouge 606
▁rud 606
▁linear 605
▁mun 605
▁regular 605
▁stockholm 605
care 604
牖 604
new 603
▁budget 603
▁evel 603
▁pang 603
徂 603
阋 603
▁sleeping 602
▁spar 602
▁specialist 602
鬲 602
los 601
▁abba 601
ins 600
pot 600
puccino 600
▁confirm 600
垱 600
▁manage 599
▁anyone 598
団 598
蘩 598
▁deposit 597
▁marque 597
▁poster 597
▁allan 596
▁feet 596
尙 596
歃 596
竑 596
▁chua 595
▁landscape 595
▁tera 595
缗 595
lanta 594
ntana 594
▁brig 594
▁det 594
▁details 594
▁divide 594
▁malo 594
▁messi 594
▁volunteer 594
缁 594
骟 594
oise 593
▁comments 593
▁noon 593
▁perhaps 593
▁plain 593
▁quadro 593
媜 593
暐 593
▁anal 592
▁called 592
▁salva 592
料金 592
kit 591
west 591
▁valida 591
▁wealth 591
髀 591
ag 590
▁carro 590
▁discussion 590
▁pata 590
▁worry 590
佾 590
archive 589
gene 589
lyst 589
▁abandon 589
▁gard 589
▁jule 589
▁lift 589
诔 589
钅 589
鞫 589
att 588
▁across 588
▁rei 588
▁sett 588
塅 588
怹 588
pos 587
▁organic 587
▁suggest 587
傕 587
砜 587
plex 586
tie 586
▁cabeza 586
▁ging 586
▁kon 586
▁moments 586
▁piu 586
潆 586
牋牋 586
real 585
▁cobra 585
▁ned 585
雠 585
papa 584
▁domini 584
▁gott 584
▁terrible 584
wat 583
▁bdsm 583
▁burger 583
▁swim 583
吿 583
璁 583
pico 582
▁literature 582
▁serve 582
攞 582
筌 582
菂 582
薷 582
world 581
▁construction 581
▁kore 581
▁parents 581
▁politic 581
圏 581
相手 581
pc 580
psi 580
zi 580
▁fault 580
▁madde 580
▁weapon 580
丵 580
嫄 580
骘 580
黻 580
orem 579
wyn 579
▁gale 579
▁lines 579
▁noir 579
▁sava 579
▁visible 579
▁amount 578
▁daughter 578
▁gender 578
湜 578
竦 578
蝽 578
鳊 578
▁employee 577
▁marker 577
▁showroom 577
溦 577
asso 576
itan 576
lular 576
▁ambient 576
▁regard 576
▁sensation 576
▁strength 576
radio 575
▁resort 575
hes 574
pest 574
ssem 574
▁fas 574
穂 574
alaba 573
▁iglesia 573
sourcing 572
▁bowl 572
▁craft 572
▁dubl 572
▁lower 572
bol 571
沚 571
纟 571
▁conversation 570
▁kwa 570
▁loyal 570
▁authority 569
▁events 569
▁outfit 569
欹 569
辂 569
顼 569
uld 568
▁cim 568
▁closed 568
▁commission 568
▁mida 568
玢 568
蚴 568
edit 567
▁ahead 567
▁jersey 567
▁upon 567
▁zao 567
厶 567
▁horo 566
▁variety 566
luca 565
▁desperat 565
▁pau 565
曷 565
鏊 565
gy 564
▁destination 564
綮 564
▁exciting 563
▁proud 563
▁rating 563
鸱 563
odi 562
ovy 562
▁mistake 562
▁refresh 562
▁fossil 561
▁muni 561
▁processo 561
▁reply 561
扥 561
蔵 561
bis 560
▁allow 560
▁complicat 560
▁estate 560
▁omni 560
▁situation 560
卮 560
坜 560
pay 559
rious 559
▁cair 559
▁female 559
▁provide 559
▁vir 559
▁weeks 559
▁haven 558
▁ranger 558
▁rare 558
▁typ 558
沬 558
蝈 558
闿 558
fani 557
file 557
▁bud 557
▁investor 557
▁sot 557
尢 557
蠊 557
ring 556
title 556
▁tuo 556
侓 556
karta 555
涙 555
缃 555
ges 554
▁assessment 554
▁boutique 554
▁flet 554
▁invite 554
▁rum 554
▁sud 554
inni 553
▁operating 553
圹 553
ats 552
plo 552
▁aval 552
▁ante 551
ulla 550
▁anonym 550
▁catalog 550
▁meal 550
▁naviga 550
仫 550
実 550
椤 550
蓍 550
fur 549
scher 549
spot 549
▁basis 549
▁meteor 549
▁rival 549
铼 549
tice 548
▁ina 548
▁kung 548
ika 547
▁pola 547
嫃 547
颙 547
▁everywhere 546
▁invalid 546
凖 546
嗥 546
bul 544
ration 544
▁cards 544
▁gore 544
▁seconda 544
▁seg 544
▁sine 544
▁upgrade 544
楪 544
dne 543
▁calm 543
▁rico 543
▁saf 542
▁spam 542
▁tic 542
▁trailer 542
踅 542
颡 542
plug 541
変 541
瀬 541
▁rebel 540
▁roma 540
罒 540
羙 540
蛞蝓 540
cock 539
hle 539
▁dui 539
▁gus 539
▁habit 539
▁pent 539
傧 539
簟 539
跗 539
dian 538
emper 538
▁advantage 538
▁brilliant 538
▁chili 538
▁draft 538
満 538
镙 538
polit 537
sine 537
▁sharing 537
▁soup 537
欻 537
▁blender 536
▁glam 536
箜 536
▁adapt 535
▁dolores 535
▁tink 535
欅 535
痩 535
豳 535
钲 535
lasting 534
▁fag 534
▁fram 534
bli 533
cura 533
ize 533
▁diversi 533
▁miser 533
南安普敦 533
牾 533
祆 533
▁bebe 532
▁ghi 532
▁plaza 532
▁reputation 532
▁twa 532
▁bain 531
▁solutions 531
虺 531
螽 531
pion 530
rage 530
ruth 530
zh 530
▁advice 530
▁heli 530
▁required 530
舢 530
▁asi 529
▁excellent 529
▁indirect 529
▁protect 529
蔸 529
boro 528
▁cock 528
▁evaluation 528
▁methods 528
▁results 528
▁supra 528
▁videos 528
鄣 528
dden 527
▁devices 527
▁firewall 527
▁grad 527
▁hoc 527
▁kama 527
呶 527
徼 527
缷 527
胝 527
蒻 527
诜 527
pped 526
road 526
▁cotton 526
▁develop 526
▁joint 526
▁naru 526
▁passage 526
▁tall 526
媄 526
褊 526
dor 525
hatta 525
▁eure 525
▁orient 525
▁transition 525
▁defense 524
▁federal 524
▁films 524
▁procedure 524
▁rag 524
▁routine 524
▁teach 524
畚 524
禳 524
bold 523
trait 523
▁canto 523
▁cave 523
刂 522
▁appreciate 521
単 521
筲 521
翦翦 521
ards 520
bolt 520
ele 520
iler 520
mania 520
▁counsel 520
▁gou 520
▁standing 520
▁totally 520
▁trio 520
depth 519
plash 519
塝 519
ppo 518
▁immortal 518
▁sincer 518
▁wet 518
鲥 518
eer 517
▁bare 517
▁questions 517
▁verse 517
臵 517
埒 516
嶌 516
腘 516
酽 516
mind 515
mojo 515
▁dood 515
▁maca 515
▁percent 515
炤 515
迨 515
bora 514
build 514
▁domestic 514
▁fallen 514
▁merci 514
▁observer 514
▁pion 514
▁prepare 514
▁stress 514
仉 514
binding 513
cilla 513
▁adjust 513
▁birth 513
▁motivation 513
▁nuk 513
▁powerful 513
燔 513
ator 512
lines 512
▁configure 512
▁farmer 512
▁fort 512
▁vehicle 512
冫 512
制限 512
尜尜 512
green 511
▁concern 511
▁marine 511
▁tape 511
佺 511
朊 511
viv 510
▁ability 510
▁achieve 510
▁creation 510
▁hap 510
▁hobby 510
▁kia 510
▁notification 510
巯 510
担当者 510
皒 510
ip 509
▁least 509
▁mash 508
▁vy 508
淏 508
ini 507
▁moral 507
guard 506
kota 506
▁fry 506
▁iba 506
▁rica 506
▁seconds 506
▁simply 506
冴 506
硷 506
蚺 506
贠 506
za 505
▁nude 505
▁precis 505
▁website 505
利用者 505
呖 505
桫椤 505
秫 505
詶箛 505
duction 504
▁anno 504
▁domo 504
▁fai 504
▁hawa 504
▁raf 504
▁revol 504
▁spend 504
彐 504
袆 504
鼯 504
etta 503
▁bul 503
▁flip 503
▁rapid 503
▁saab 503
仲介 503
杪 503
盃 503
▁passen 502
▁scanner 502
伝 502
僦 502
卣 502
躶 502
nar 501
riya 501
珰 501
ching 500
uj 500
▁resto 500
鈊 500
lando 499
lighting 499
▁combine 499
▁proto 499
▁witness 499
崐 499
嵴 499
翾 499
linda 498
▁bandar 498
▁nyt 498
▁radar 498
亜 498
彖 498
昺 498
ciel 497
zza 497
▁crowd 497
▁minh 497
▁partnership 497
▁skull 497
倮 497
嫲嫲 497
翮 497
蜮 497
黥 497
ridge 496
▁buenos 496
▁told 496
茛 496
螈 496
gra 495
zie 495
崤 495
▁deserve 494
▁multiple 494
▁tak 494
▁teams 494
莨 494
鸹 494
▁anniversary 493
▁climb 493
▁mae 493
▁ranking 493
▁teachers 493
嘏 493
嶝 493
aires 492
ery 492
▁februar 492
▁garage 492
▁lyrics 492
▁married 492
樗 492
baru 491
char 491
仼 491
ging 490
sels 490
tour 490
▁banker 490
▁debt 490
▁mach 490
▁resist 490
▁viola 490
ane 489
chick 489
eran 489
tario 489
▁brenn 489
▁drugs 489
▁palo 489
▁peta 489
▁zum 489
圮 489
趿 489
铪 489
fish 488
got 488
tions 488
▁breakfast 488
▁curso 488
▁changes 487
▁currency 487
▁desert 487
▁fidel 487
搧 487
谮 487
阝 487
bly 486
sters 486
zuki 486
▁mole 486
▁poem 486
抺 486
ill 485
rial 485
▁aver 485
▁dolce 485
▁integrat 485
▁ster 485
唿 485
氿 485
睺 485
not 484
ply 484
廾 484
agh 483
▁hue 483
▁lum 483
巭 483
wens 482
▁drift 482
▁solve 482
玎 482
髭 482
▁genetic 481
▁invest 481
▁mouth 481
▁nada 481
▁soo 481
▁spart 481
罴 481
髁 481
elu 480
tsu 480
▁depend 480
▁opportunity 480
▁weiss 480
mone 479
▁hende 479
▁hung 479
▁sold 479
煕 479
甍 479
paid 478
▁brus 478
▁casca 478
▁husband 478
▁mild 478
▁resolution 478
膂 478
traction 477
▁dela 477
▁photograph 477
缡 477
bed 476
dimension 476
etin 476
strom 476
▁anta 476
▁dicta 476
▁truck 476
孒 476
秾 476
nette 475
tempor 475
adore 474
ckel 474
▁deliver 474
▁sau 474
▁wants 474
▁watching 474
啁 474
dust 473
ite 473
rman 473
▁correct 473
▁eile 473
▁integration 473
榀 473
瞽 473
窸窸窣窣 473
紮 473
▁accu 472
▁asked 472
▁claus 472
▁levy 472
▁ways 472
兕 472
赀 472
霊 472
info 471
low 471
odo 471
ssi 471
wig 471
玕 471
closure 470
shot 470
▁addit 470
▁loco 470
熳 470
県 470
磙 470
鳇 470
黾 470
▁advertising 469
▁dhab 469
▁finale 469
▁intellectu 469
▁rece 469
蒨 469
habi 468
ppet 468
▁clinique 468
▁satellit 468
▁transit 468
讵 468
赍 468
ider 467
kers 467
▁appro 467
▁blonde 467
叒 467
眇 467
▁ame 466
巻 466
配布 466
gression 465
telecom 465
▁bald 465
▁continued 465
▁happens 465
▁hep 465
▁quota 465
▁recording 465
蒟 465
buy 464
cons 464
frica 464
luc 464
mir 464
rado 464
▁gut 464
▁lever 464
扌 464
滑鼠 464
▁painting 463
▁quite 463
▁wisdom 463
侘 463
剀 463
秕 463
qiy 462
▁maintenance 462
▁taking 462
insomni 461
nse 461
stock 461
▁karaoke 461
▁xil 461
僰 461
gging 460
pica 460
▁drawing 460
▁massive 460
▁verb 460
▁weird 460
偾 460
▁cutie 459
▁landing 459
▁lips 459
▁maki 459
▁sag 459
钇 459
髪 459
▁competition 458
▁dam 458
▁pipi 458
▁playlist 458
▁resolve 458
▁vocabula 458
燹 458
苼 458
鼍 458
roll 457
▁bara 457
▁terms 457
ovan 456
sik 456
tech 456
▁cargo 456
▁conclusion 456
▁stamp 456
佴 456
撘 456
髫 456
▁actually 455
▁authentic 455
▁teenager 455
襞 455
bil 454
▁hul 454
▁predict 454
▁recover 454
▁thesis 454
▁worm 454
凃 454
岽 454
ective 453
▁arrive 453
弎 453
liner 452
▁cena 452
▁dit 452
▁survival 452
蒐集 452
lec 451
▁8 451
▁ignore 451
▁zebra 451
詈 451
pur 450
tender 450
▁banga 450
▁capacity 450
▁nap 450
▁relations 450
▁salute 450
▁tion 450
浍 450
瓘 450
豊 450
镧 450
ural 449
▁known 449
▁mul 449
▁rou 449
▁stal 449
觚 449
ely 448
sian 448
▁janeiro 448
▁odd 448
▁presto 448
埌 448
cke 447
cri 447
▁opus 447
屾 447
撄 447
▁brod 446
▁favourite 446
▁inform 446
▁massage 446
▁pics 446
ishi 445
▁already 445
▁impression 445
▁individual 445
▁principal 445
▁torre 445
鍀 445
▁appeal 444
▁homo 444
▁recall 444
▁retro 444
▁sanc 444
▁wis 444
琤 444
▁constant 443
▁dari 443
▁intelligent 443
▁pepe 443
▁yard 443
摭 443
瀍 443
▁brush 442
▁gim 442
▁murder 442
▁torna 442
▁wie 442
乾燥 442
粢 442
llon 441
put 441
school 441
▁eto 441
▁italian 441
▁persist 441
▁rough 441
asa 440
leigh 440
mbra 440
▁crisis 440
▁della 440
▁ebook 440
▁himself 440
▁marketplace 440
圉 440
榎 440
鉨 440
ors 439
ping 439
▁permanent 439
▁quantitat 439
▁reserved 439
鳯 439
tri 438
▁continent 438
▁huge 438
▁merit 438
▁raz 438
铑 438
photography 437
▁amore 437
▁lawyer 437
▁trainer 437
俢 437
dge 436
dh 436
kes 436
wari 436
▁dashboard 436
▁dyna 436
▁sty 436
攰 436
赜 436
鲀 436
enberg 435
natural 435
shing 435
▁dum 435
▁pistol 435
堙 435
媸 435
桕 435
瘌 435
rrr 434
▁amigo 434
箝 434
絶 434
荳 434
螅 434
arius 433
cello 433
quid 433
▁practical 433
▁prosper 433
悫 433
汔 433
cko 432
elsen 432
hore 432
lsa 432
pho 432
robi 432
▁casting 432
▁clothes 432
▁curta 432
▁ensemble 432
▁fus 432
▁ita 432
▁needs 432
▁wax 432
袓 432
駡 432
bet 431
unda 431
▁awareness 431
▁celebrate 431
▁etern 431
▁sweat 431
鳢 431
gos 430
hasa 430
▁grim 430
▁hotels 430
▁prat 430
▁spell 430
冧 430
硬碟 430
addict 429
berto 429
ets 429
lei 429
llum 429
▁classroom 429
▁securi 429
funk 428
▁functional 428
▁lack 428
▁registr 428
亍 428
冚 428
禇 428
艏 428
陞 428
ject 427
rave 427
tax 427
▁como 427
▁construct 427
▁looks 427
▁starter 427
▁understanding 427
亖 427
溷 427
腠 427
艽 427
▁disorder 426
▁generate 426
▁kuo 426
▁plastic 426
▁whisky 426
列印 426
浥 426
滛 426
缵 426
錡 426
閲 426
rad 425
uka 425
▁clare 425
▁lava 425
垕 425
铗 425
▁boto 424
▁insist 424
▁tuan 424
惢 424
紘 424
ude 423
▁arriva 423
▁noto 423
緑 423
騒 423
▁applications 422
▁environmental 422
▁posts 422
嫫 422
螫 422
lement 421
og 421
shes 421
倥偬 421
悝 421
缯 421
eller 420
print 420
▁gri 420
▁hostel 420
畋 420
horn 419
lle 419
unt 419
▁military 419
▁nut 419
▁oka 419
呙 419
嗉 419
戓 419
解消 419
镦 419
cap 418
▁cul 418
▁revi 418
▁sma 418
▁tales 418
drag 417
heng 417
▁dha 417
▁nee 417
▁perform 417
▁plenty 417
▁texture 417
蠃 417
镏 417
nim 416
pont 416
▁absolutely 416
▁connected 416
▁khal 416
▁lov 416
▁mam 416
▁thermo 416
brow 415
rab 415
▁bedroom 415
▁evidence 415
▁mea 415
▁mister 415
▁shooting 415
垆 415
媺 415
措置 415
▁versus 414
倓 414
hed 413
sele 413
▁belo 413
▁giga 413
▁tennis 413
恏 413
nde 412
▁bureau 412
▁coopera 412
▁mende 412
▁sources 412
▁vee 412
▁venue 412
薤 412
aldi 411
log 411
▁baa 411
▁destroy 411
▁maks 411
▁shower 411
幛 411
捯饬捯饬 411
dang 410
loha 410
▁commande 410
▁depende 410
▁webb 410
丬 410
圕 410
跸 410
蹁跹 410
▁annual 409
▁articles 409
▁beg 409
▁cognitive 409
▁hardware 409
乛 409
沄 409
袢 409
铙 409
▁cooking 408
▁extern 408
▁fuel 408
▁jog 408
▁posted 408
嗌 408
珽 408
胼 408
▁cultural 407
▁heard 407
▁lid 407
▁patri 407
▁recommend 407
▁shr 407
利兹联 407
鲩 407
ctic 406
▁artificial 406
▁bacon 406
▁calcul 406
▁equipment 406
▁ono 406
衪 406
ild 405
milia 405
rang 405
▁assist 405
▁screenshot 405
▁threat 405
▁tum 405
▁usually 405
漷 405
蓠 405
elia 404
led 404
▁circuit 404
▁satan 404
▁seen 404
袴 404
麴 404
▁district 403
▁locale 403
▁names 403
栊 403
録 403
gile 402
▁bax 402
▁curios 402
▁leading 402
▁pengu 402
垇 402
ira 401
wear 401
▁celebrity 401
▁forbi 401
卟啉 401
自宅 401
菔 401
▁integr 400
▁moji 400
▁muscle 400
▁rede 400
▁treatment 400
嘭嘭 400
愔 400
擑 400
茈 400
pack 399
▁pivo 399
奌 399
罍 399
酹 399
霂 399
chen 398
▁exhibi 398
▁interval 398
碲 398
鄠 398
bur 397
law 397
▁ani 397
▁contain 397
▁fantasia 397
▁projects 397
▁trist 397
烀 397
瞓 397
spe 396
▁audience 396
▁leopard 396
fram 395
▁mus 395
▁platin 395
▁sauce 395
嗞 395
旄 395
氷 395
isen 394
oxy 394
▁giving 394
绻 394
肫 394
讠 394
aging 393
tland 393
▁holder 393
▁rhy 393
▁tras 393
爀 393
钬 393
魟 393
city 392
pers 392
self 392
tress 392
▁depression 392
▁groups 392
▁inspector 392
▁inspiration 392
栌 392
洎 392
麿 392
lever 391
rescu 391
▁cousin 391
▁spectrum 391
▁successful 391
▁tunnel 391
▁vertical 391
嚜 391
帯 391
鲣 391
oh 390
ou 390
▁carrera 390
▁outstanding 390
▁substitut 390
畛 390
褡裢 390
钭 390
dale 389
ono 389
site 389
sses 389
▁affect 389
▁cei 389
▁exclusive 389
泖 389
quo 388
rot 388
▁confu 388
▁hyd 388
▁mami 388
▁veloci 388
lsen 387
sphere 387
▁dag 387
▁garn 387
▁kod 387
▁tivo 387
蛲 387
excl 386
ography 386
onio 386
▁critic 386
▁cupcake 386
▁dut 386
▁experiment 386
▁reta 386
乸 386
▁carne 385
▁dok 385
▁kino 385
▁koa 385
▁slowly 385
渟 385
ssing 384
怏 384
陬 384
abe 383
blogspot 383
celli 383
▁relative 383
fare 382
une 382
▁confidence 382
▁jolla 382
▁koo 382
▁reasonable 382
亶 382
衞 382
骉 382
鮀 382
▁annab 381
▁fiber 381
▁instead 381
▁moli 381
▁toilet 381
惣 381
旒 381
chie 380
lope 380
▁latte 380
▁organiz 380
▁pill 380
▁sent 380
▁strict 380
堉 380
寔 380
拊 380
胼胝 380
趺 380
schul 379
▁collective 379
▁encounter 379
▁petit 379
▁rasp 379
▁wann 379
颟顸 379
ife 378
vette 378
▁swimming 378
▁viking 378
劬 378
朓 378
柽 378
鈤 378
钋 378
fair 377
ige 377
lands 377
remo 377
▁dialogue 377
▁worldwide 377
殂 377
铷 377
off 376
tte 376
▁newspaper 376
▁recipe 376
▁sri 376
屲 376
ans 375
dong 375
▁activities 375
▁hipp 375
蚰 375
table 374
▁azal 374
▁capsule 374
▁rang 374
▁une 374
喎 374
洗濯 374
禚 374
耵聍 374
豨 374
dded 373
string 373
▁stre 373
▁tension 373
枱 373
cient 372
itas 372
quest 372
▁bikini 372
▁chronic 372
▁pieces 372
▁spoke 372
譞 372
铈 372
▁aby 371
▁porta 371
暾 371
镪 371
鸸鹋 371
and 370
gio 370
hold 370
sas 370
▁kayak 370
▁massa 370
▁pul 370
▁received 370
▁stea 370
暁 370
蛱 370
顗 370
haft 369
wagen 369
▁combat 369
▁housing 369
▁leaders 369
▁slo 369
▁stroke 369
▁volk 369
▁warrant 369
匏 369
硏 369
olla 368
rico 368
▁enhance 368
▁supplier 368
刭 368
瓿 368
arkan 367
give 367
lberg 367
rane 367
▁arrange 367
▁heel 367
▁manner 367
▁suis 367
belt 366
identifi 366
▁actions 366
▁anymore 366
▁brazil 366
▁bros 366
▁distinct 366
▁knew 366
▁puc 366
▁selling 366
▁volt 366
咾 366
坬 366
蔀 366
ste 365
▁falls 365
▁parts 365
▁permission 365
▁responsibility 365
▁rit 365
廻 365
揿 365
淂 365
渃 365
籀 365
zip 364
▁detect 364
▁evangeli 364
泐 364
觋 364
hida 363
ial 363
spur 363
▁antivirus 363
▁reporter 363
脇 363
where 362
▁cama 362
▁inspect 362
▁mutual 362
▁nato 362
▁ner 362
▁printer 362
▁smoking 362
▁taken 362
囬 362
rende 361
▁becoming 361
▁below 361
▁conflict 361
▁lave 361
▁mush 361
▁reviews 361
磔 361
elis 360
ghan 360
lino 360
sky 360
▁aspect 360
▁quanti 360
▁takes 360
冨 360
耜 360
驺 360
鲢鳙 360
▁relation 359
▁wanda 359
亅 359
笥 359
轾 359
elve 358
warm 358
▁explain 358
▁femme 358
初心者 358
fax 357
under 357
▁dollars 357
▁hypothe 357
▁joc 357
▁mafi 357
▁maximum 357
▁patient 357
▁piper 357
▁started 357
咵 357
晢 357
榖 357
阒 357
maid 356
sert 356
zam 356
▁cities 356
▁employment 356
▁estima 356
▁registration 356
▁stig 356
▁usage 356
ale 355
cki 355
iah 355
melt 355
tany 355
vies 355
▁bras 355
▁despe 355
▁lap 355
▁malaysia 355
▁religion 355
▁tester 355
侔 355
芣 355
attachment 354
dan 354
mu 354
ppe 354
rig 354
▁comfortable 354
▁divin 354
▁oxygen 354
▁patent 354
▁perspective 354
▁smil 354
呑 354
栞 354
蠖 354
gradu 353
zan 353
▁accord 353
▁among 353
▁ath 353
▁fundamental 353
▁mig 353
▁nylon 353
悒 353
烝 353
耧 353
▁costume 352
▁drap 352
▁forecast 352
▁horror 352
嗻 352
gu 351
nio 351
▁metropol 351
予定 351
圧 351
桴 351
wor 350
▁accident 350
▁phrase 350
▁recognition 350
▁skr 350
▁uniform 350
啯 350
盍 350
笊 350
鲂 350
hero 349
nza 349
▁discuss 349
▁fabulous 349
▁finding 349
▁monte 349
▁numeri 349
▁oriental 349
▁suffer 349
塱 349
廛 349
気 349
洳 349
lust 348
stige 348
tain 348
▁commitment 348
▁convention 348
▁loca 348
▁outdoor 348
▁rai 348
▁santo 348
槻 348
ett 347
hahaha 347
▁eating 347
▁leath 347
▁linn 347
▁sensitive 347
▁synth 347
晳 347
苿 347
锘 347
therapy 346
▁haute 346
▁surge 346
▁variation 346
▁vitamin 346
刖 346
旰 346
杺 346
stub 345
▁alfa 345
▁bis 345
▁blend 345
▁homes 345
▁potential 345
▁wilde 345
借金 345
ab 344
fus 344
iiii 344
nam 344
walk 344
▁emergency 344
▁fam 344
▁ravi 344
▁vas 344
橦 344
歀 344
粄 344
▁issues 343
▁manu 343
▁presence 343
▁quen 343
▁ruin 343
亇 343
堌 343
玡 343
骖 343
berger 342
fina 342
▁allo 342
▁generic 342
▁minimum 342
▁population 342
▁rota 342
▁tau 342
cel 341
script 341
tica 341
▁chose 341
▁elegant 341
▁engagement 341
▁institution 341
▁nik 341
▁representa 341
佧 341
杩 341
珴 341
禤 341
size 340
▁alcohol 340
▁bab 340
▁coordina 340
▁lug 340
▁patience 340
▁wer 340
蠲 340
褙 340
食事 340
communica 339
ister 339
junk 339
sap 339
spel 339
tery 339
tourism 339
▁curs 339
▁grave 339
▁neighborhood 339
▁plz 339
▁reception 339
毘 339
mn 338
runk 338
▁corps 338
▁minne 338
▁reven 338
▁semester 338
玙 338
疠 338
莩 338
power 337
test 337
▁grind 337
▁seem 337
卺 337
槙 337
禊 337
nato 336
ques 336
reck 336
▁driving 336
▁fue 336
▁neat 336
婐 336
籴 336
镠 336
ivit 335
stina 335
▁glamour 335
▁stats 335
削除 335
媵 335
攮 335
椪 335
湴 335
瑢 335
礡 335
荛 335
▁analog 334
▁aware 334
▁bali 334
▁changed 334
▁interested 334
▁tash 334
儁 334
儇 334
宬 334
昳 334
鮟鱇 334
ection 333
tab 333
tas 333
▁ras 333
卬 333
婳婳 333
hole 332
▁algo 332
▁longer 332
▁programmer 332
▁saying 332
蝥 332
螣 332
usten 331
vest 331
▁tight 331
狻猊 331
蓣 331
醯 331
鵰 331
hack 330
suka 330
▁built 330
▁confirmation 330
▁decide 330
▁deutsche 330
▁especially 330
▁mater 330
▁virtu 330
丆 330
囵 330
晧 330
绂 330
骀 330
▁arbor 329
▁featuring 329
▁pag 329
▁pardon 329
cula 328
riam 328
tional 328
▁appointment 328
▁autism 328
▁communi 328
▁exact 328
▁infla 328
狨 328
酃 328
鬯 328
py 327
sel 327
▁buddh 327
▁checking 327
▁companion 327
▁smartphone 327
▁stretch 327
▁thre 327
▁thy 327
夤 327
翚 327
蠓 327
谳 327
陔 327
italia 326
lom 326
▁deux 326
▁epi 326
▁interrupt 326
▁orbit 326
咝 326
垟垟 326
漈 326
獴 326
ires 325
▁bate 325
▁genom 325
▁initiative 325
▁kana 325
▁kram 325
▁possession 325
▁sien 325
▁strategic 325
▁yah 325
滆 325
狍狍 325
茳 325
ick 324
stin 324
▁coral 324
▁stable 324
棻 324
镨 324
鲞 324
charge 323
stit 323
▁pile 323
▁rig 323
▁sector 323
▁sofa 323
▁temporar 323
▁tourist 323
婠婠 323
屺 323
崾 323
悛 323
搋 323
樫 323
gee 322
ord 322
▁compliance 322
▁nego 322
▁nur 322
▁sak 322
▁teren 322
▁valid 322
弇 322
隳 322
ched 321
eign 321
▁crawl 321
▁navigation 321
▁variant 321
葸 321
髎 321
cup 320
install 320
mash 320
tique 320
vok 320
▁anima 320
▁commodi 320
▁dinosaur 320
▁kelle 320
▁pharmacy 320
▁restaurants 320
▁debate 319
▁during 319
▁rot 319
梃 319
abel 318
instruction 318
trip 318
▁happened 318
▁hii 318
▁karin 318
▁places 318
丏 318
帀 318
猊 318
珧 318
耪 318
镱 318
sten 317
▁bala 317
▁improve 317
▁sain 317
▁seriously 317
仳 317
幵 317
dent 316
fre 316
▁beau 316
▁hier 316
▁kami 316
▁manufacturing 316
▁mora 316
▁pup 316
▁wah 316
栟 316
粜 316
靺鞨 316
ever 315
quin 315
▁hoi 315
▁minimal 315
墘 315
璈 315
籹 315
鳙 315
acquisition 314
nah 314
▁courses 314
▁forza 314
▁rela 314
▁scenario 314
▁screw 314
▁xer 314
咥 314
茚 314
gitt 313
lent 313
▁industrie 313
▁pale 313
▁scandal 313
▁sessions 313
▁vietnam 313
滠 313
诼 313
髈 313
▁franco 312
▁jury 312
▁nguy 312
▁pey 312
▁seeing 312
入力 312
堞 312
嵖岈 312
獬豸 312
酡 312
镢 312
leg 311
same 311
▁baka 311
▁flavor 311
▁hel 311
▁infrastructure 311
▁powder 311
▁sandwich 311
▁worst 311
荬 311
spiegel 310
▁appeared 310
▁bora 310
▁disease 310
哕 310
奬 310
lma 309
mela 309
tribute 309
uff 309
▁documentar 309
▁manufacture 309
▁shaq 309
堍 309
栝 309
犰狳 309
疋 309
肜 309
hale 308
ritz 308
▁ese 308
▁further 308
▁mayo 308
▁stap 308
▁types 308
匚 308
淠 308
ated 307
eng 307
eye 307
iston 307
ments 307
mmel 307
▁apart 307
▁koma 307
▁napa 307
▁troll 307
戯 307
汏 307
滗 307
蹓 307
遄 307
ert 306
rosi 306
▁celebration 306
▁elementar 306
▁jep 306
▁taught 306
寛 306
掟 306
癍 306
黐 306
gens 305
▁champ 305
▁climate 305
▁geral 305
▁noe 305
▁pronuncia 305
坵 305
奀 305
岺 305
昃 305
汚 305
沨 305
daily 304
▁afro 304
▁cau 304
▁continu 304
▁efficiency 304
▁effort 304
▁nuclear 304
犼 304
祘 304
ining 303
lander 303
▁duran 303
▁sedan 303
圬 303
奓 303
曈曈 303
渉 303
莣 303
觜 303
mare 302
nal 302
▁actress 302
▁barber 302
▁bata 302
▁rup 302
亠 302
皞 302
蘧 302
辶 302
olo 301
ram 301
rida 301
version 301
▁contribution 301
▁particular 301
▁probably 301
慊 301
銆 301
铒 301
gun 300
ony 300
ute 300
▁declare 300
▁previous 300
▁roa 300
▁toll 300
劏 300
娠 300
捜 300
浞 300
絜 300
覚 300
gner 299
▁arab 299
▁capitol 299
▁corn 299
▁likely 299
▁logge 299
▁mosaic 299
▁nima 299
▁prompt 299
倻 299
忉 299
鲋 299
hez 298
mobile 298
pie 298
▁certain 298
▁colon 298
▁drill 298
▁minister 298
▁organ 298
▁parcel 298
▁promote 298
▁shaka 298
▁sushi 298
▁vang 298
嚒嚒 298
樯橹 298
筘 298
鬘 298
andre 297
▁conserva 297
▁digit 297
▁ibi 297
▁influence 297
▁plate 297
俜 297
埤 297
泚 297
燿 297
邠 297
鲽 297
鹾 297
ario 296
pala 296
quer 296
▁basket 296
▁bron 296
▁dung 296
▁flood 296
▁gradu 296
▁invitation 296
▁monthly 296
▁starting 296
撃 296
晙 296
纛 296
蜣 296
ater 295
cristian 295
elda 295
▁antoi 295
▁eso 295
▁genre 295
▁overall 295
▁pole 295
仮 295
屛 295
搫 295
楯 295
澥 295
秂 295
覌 295
uar 294
vention 294
▁exposure 294
▁juda 294
▁leis 294
▁lit 294
▁luxe 294
▁paradigm 294
髑 294
ense 293
pac 293
▁engage 293
▁following 293
▁lok 293
▁termina 293
▁triumph 293
毳 293
笸 293
▁indeed 292
▁judi 292
▁regional 292
▁traditional 292
▁updated 292
地図 292
菻 292
辏 292
cie 291
[...]
